/**
  ******************************************************************************
  * @file    network_data_params.c
  * @author  AST Embedded Analytics Research Platform
  * @date    2026-07-11T18:16:17+0800
  * @brief   AI Tool Automatic Code Generator for Embedded NN computing
  ******************************************************************************
  * Copyright (c) 2026 STMicroelectronics.
  * All rights reserved.
  *
  * This software is licensed under terms that can be found in the LICENSE file
  * in the root directory of this software component.
  * If no LICENSE file comes with this software, it is provided AS-IS.
  ******************************************************************************
  */

#include "network_data_params.h"


/**  Activations Section  ****************************************************/
ai_handle g_network_activations_table[1 + 2] = {
  AI_HANDLE_PTR(AI_MAGIC_MARKER),
  AI_HANDLE_PTR(NULL),
  AI_HANDLE_PTR(AI_MAGIC_MARKER),
};




/**  Weights Section  ********************************************************/
AI_ALIGNED(32)
const ai_u64 s_network_weights_array_u64[35421] = {
  0xed5631ebf14ef6ccU, 0x7f62cfc471f09eb4U, 0x310ece4b06ada7baU, 0xbea2ac81bcccf14eU,
  0xa9aa98c12105f9aaU, 0x17d33e3e4f2afd13U, 0xb05543b71393d45U, 0xf8383857d3bea7efU,
  0x564d7fafaa86f70dU, 0x194ad6d8bdf208fdU, 0x1e9c3d62e1f423dU, 0xc681ae3e1269f81bU,
  0xcbbd21294f0d10efU, 0x7f391f51f925eaddU, 0xf1dad24a30675227U, 0xcab41708ffeef0d6U,
  0x72ddebdfb5b7a0bbU, 0x22f50247587f5659U, 0xe0d304e0132c243bU, 0x8ca8afacd7f8e2d4U,
  0xe72fe9ec020adfb5U, 0x7fafe227f4f718eeU, 0xbfe823f3ee43d5e4U, 0x2c4311eb23eff057U,
  0x511bafa2cc08090eU, 0x2e81a7b5273d1346U, 0xbfd4cd1e24173119U, 0xa54ea89c3dd9eb12U,
  0x242b4538040a25a3U, 0x302a811b16c13330U, 0xf69600eed72f2491U, 0xe6eff5ea09f9b9fdU,
  0xe1b4be7e1edd1e2U, 0x4000d246234237fU, 0x1326d00a39c707fbU, 0x60821f6d811b18d5U,
  0xae1647a41305e513U, 0xaafd29ed16ee003aU, 0xd80e0e2abf0efa7aU, 0xad3f34a31cd47fc8U,
  0xb7062ef6ec0208ebU, 0xe3080a4d379b4d38U, 0x6fe5308813204a5U, 0x132e0bb010f1e9fcU,
  0xf41b30df2b11ed36U, 0xe20e81ac03b8f712U, 0x13042ae7153bece2U, 0x2a265fd4d6a41528U,
  0x3f7fc5bd84fb06ffU, 0x48e9d6c0fe01ff41U, 0xe9b866f909fb1e21U, 0x987f1efbdf00eb1fU,
  0x4140f7b91ad618e9U, 0x1e03d718f3fbf6c5U, 0x41dd00002567U, 0x132b00000059U,
  0x1800002dc4U, 0x529b00001aaaU, 0xffffff6d00000019U, 0xffffff7e0000004bU,
  0x53f000048b1U, 0x104cffffff5bU, 0x100dcecd1e390f11U, 0xd1cd8f905f181adU,
  0xee2acc1140d0f19U, 0xe27efe9361683d1U, 0x11f5b9eaeffb1e2dU, 0x280704f32906c6f6U,
  0x5040de80718f604U, 0xb11f2fe10eadddfU, 0xffedefd90aeaf5faU, 0x30a0af929f3060dU,
  0xfefa0507dee80507U, 0xaf422fa1ce7111fU, 0xff0d05020501eb03U, 0xfcfc0a1bf80600f8U,
  0xf800f4fb07e1dae1U, 0xe3f007160a1a1b18U, 0xfd040d0ae9f1dfddU, 0xeeee2d1108f72025U,
  0x10eae6f902b10307U, 0x1c117ff0df404fcU, 0xcb1df328878126d9U, 0x270910e6f42105fcU,
  0xe6cbeb183ccd1fffU, 0xdf8612fb1707f119U, 0x50eefac4000edf1fU, 0xf528faf82be3daafU,
  0xf138dde884e21804U, 0x345ed3ec0312e8f8U, 0xe9c9d4f56c070305U, 0xcaf7110e31f9c8e0U,
  0x43f522d80a50cc0fU, 0xe32d0dfb23d0e6e6U, 0xfb30ffe88c221801U, 0x316bdaffe306fcf1U,
  0xeaebf4fa631dfb17U, 0xda211b242703edf7U, 0x5f712f4eff6f52bU, 0xa5f621f3d0d401f8U,
  0x5860ef70006e59dU, 0x3e0ff3ed17d6060dU, 0x66be41219f51e28U, 0x7e9de1cf52debedU,
  0xac1feae818e209U, 0xc40d25a3eda5080aU, 0xeec9e80c07fdeb9eU, 0x7c0e090d130f060bU,
  0xff7fdc170eee2242U, 0xd8e2c94dfe3ef7f0U, 0xf5e30ef1ff05efd5U, 0x150627c003eb0208U,
  0xea18e311fefcfe1eU, 0x1afcfb33ef38020cU, 0x11cf503faf5111bU, 0xc6f9e02003f9fdf3U,
  0x3dce61e0aff180cU, 0xf8c821ee13f914U, 0xbd9d91efb030b09U, 0xa03d4ef1a110208U,
  0xd46f502fdfcfcc5U, 0xf7ff34c017a8e6daU, 0x2e1e21e151f1d02U, 0x14078165af13fffeU,
  0x3b5dd190d171332U, 0x1e1587211518fe03U, 0x830f9fffef307f7U, 0xc40c19b4269af3e2U,
  0x9e6f90b1339fbe7U, 0x1e16a13aba0108f2U, 0xf4c8ff08042c0320U, 0xf1e9e24e7fc08fcU,
  0xfa1c12eef40af911U, 0xb21612c922e80cf1U, 0xf511ebeb04f42df1U, 0x3cf441fb06c90507U,
  0xd53040c700303d0eU, 0x321d2f302ae9063dU, 0xf9ff2beff6ff2d10U, 0xde28e5281a21f605U,
  0xd32624c2ee323513U, 0x130b2009ec163aU, 0xf3027fdcd9034c18U, 0xd839c516eb23d60dU,
  0xfe5040105cfcff8U, 0xdecee9c5f91397b4U, 0x18f34bddfb060c19U, 0xda1ad710f4071600U,
  0x2fc725f506c8cbe6U, 0xdfe4ebd3f70d888aU, 0x2edfefa0ce9fddbU, 0x24c02fcaf2fdacbcU,
  0x10006f7030c0001U, 0x80808fa02f9d4deU, 0x601f6f2040dfc04U, 0xe1009fc0701c7dbU,
  0x9fef1030504f702U, 0xb070ffc0902f301U, 0x2ff04f2ff12fb03U, 0xd03fafbf9a9aeU,
  0x500f0e70716f6feU, 0x21102fe0200819bU, 0x300f3fe0508f600U, 0x20a05050a02e7f3U,
  0x902fdf9030cfb0bU, 0x701fef904d4c2U, 0x6fdf4ee0713f807U, 0x30cfb02fc03a5b7U,
  0x4f9fe0506ff03U, 0xfd08020b0601f9f8U, 0xe8041216fff4f7faU, 0xf0fbedf70ff41125U,
  0xe32e310cda00cdc9U, 0xb0f8f50824c85a32U, 0xf13025f1e70fccadU, 0xa500d70f0b135210U,
  0xfdd5fb2a04cb030cU, 0xaebe9fd020f062bU, 0xf4f20d3af0c5dce8U, 0xe5cb440501dc727fU,
  0xf2140026e5e9cfc4U, 0xcbd91f02fce5684eU, 0x1ae4d51509cd373eU, 0x38e7f8100808e4feU,
  0x15cecc3c1cc1194cU, 0x52cf2209050f1a4aU, 0xfbe9d82e12d30a32U, 0x26ceffef000c2331U,
  0x7df20f9fc14fffdU, 0x8140c06e316f906U, 0x8c8190df828fbc8U, 0x11bf1fabef6fe05U,
  0xfa0c10020614f5c2U, 0xf415f102e108fdf6U, 0x1ed1903021d0803U, 0x2111f019e4201208U,
  0xf50e100d1026f9d4U, 0x90f971e8ce5f7d9U, 0xff2a100a072ef4ecU, 0xbf15992fbcf701e1U,
  0xf4080bfc0a1a071aU, 0x80bdf3ce1321410U, 0x52ff70d0e2bff05U, 0xef138162af1111dbU,
  0xa3302051326ff0bU, 0xd3139158d30a15ecU, 0xc16c31b1ee611e9U, 0x4f409c8ebdcf7d6U,
  0xc2e70204f2fd31adU, 0x51e9dbe2e307b3b5U, 0xd004200fe120fbeaU, 0x5d1dc72af4351515U,
  0x3d23d00223ec0f4dU, 0xb006f208fc161409U, 0x5edb23521ca15dcU, 0xcfc815c2b2a9f0a0U,
  0xc4ca2b0bc51debc7U, 0x4703eeeac9e3f5eaU, 0x3a2808e8060df64aU, 0xe90abf5719582c2fU,
  0x2c1ce4fc36cf0331U, 0x81d9260ee3d00611U, 0xeccf0311ec0dd9fcU, 0xfafe21f0d5d90507U,
  0xceedf3140a810af7U, 0xf1a0f417f3071112U, 0xb7f5d119cee2f8f2U, 0xf0b0e90a08050af3U,
  0xd310d204c207f5ffU, 0x4fc0ae4181a02f0U, 0xdbe4c71c16890606U, 0xf5a9f918e60b1708U,
  0xcaf6a812ce0aea00U, 0xfabff2fc030113f4U, 0xd31bdb07b62ae00aU, 0x91b00e31b0d0a08U,
  0xf5f0dafb03eeeaf3U, 0xf4f60303f7f40806U, 0xfd0dbff3eb22e100U, 0xf07fff615f008f9U,
  0x110af3ef2dde01U, 0x91e24f219ee0709U, 0x4d02f0c805f6df04U, 0xded06fa1eeb0d16U,
  0x9bece231452d2e01U, 0xce092c21f9ebffebU, 0xf1f9ec0599cbdc0aU, 0x1213cdd7041eccefU,
  0xcf03f90ed8f7fefcU, 0x610e9f31c1be0e2U, 0x6803ee811acef608U, 0x19cff6f82bee1128U,
  0xbffadf4838221cfeU, 0xe8192d19feefefdbU, 0xe0050bf91cf41eeaU, 0xe5f10811e200f6ebU,
  0xf0fff8eeb6e1e9ffU, 0x1b0ce3e3261ed5dfU, 0x3e08fbec24feef04U, 0xbcc03101aee2119U,
  0x280705edeaf6e2e8U, 0x61fe809faf0edU, 0xcbeed5fb55183b16U, 0xefea1000fedce9U,
  0xfafcf5fee2fd04f0U, 0x11bf3e2f713f6e7U, 0x330103cde710cdefU, 0x21805ee07f7eed3U,
  0xc5f8d5e97f4e382aU, 0xee17eb26f6e7d3c1U, 0x1ffdde5eb03eaf1U, 0xf834d9eefe1b00e4U,
  0x1f0a0bd1ea04c6f9U, 0x10a0ded0cf505eeU, 0xe808f20753331c20U, 0xff14e91b05e8eee1U,
  0x401eae7ee08ef00U, 0xc1fe4fa0c2004f5U, 0xf8fcdd2e0008fe19U, 0xe202eee0fafaf1fcU,
  0x15b127d5e103c896U, 0x412e0bd205c412f2U, 0x24bede523f103dcU, 0x29cbe471ef3013eaU,
  0xeb3adc411bf9295aU, 0xb7efe93afb31f5f5U, 0x2941208b326d4f8U, 0xea3cf381e7b6fd01U,
  0xfb130ad312ecd8a9U, 0x42ecf914e5060eefU, 0xfe40e5261afa382eU, 0xf2ebf05ef129faf8U,
  0xe3f00023db1a0752U, 0xc10f11ddd4f6ee0dU, 0xfce503f3f007d5e7U, 0xfd1c04c1effd05f2U,
  0x41a7fc6dd23aaeaU, 0x1b21e4d21143fc0eU, 0x351f3f1805cda3e2U, 0x61dccefecc3dc3ebU,
  0x2b1b0c2050f2091dU, 0x26bccb33f1f2f6fcU, 0x46f3531afce2b6deU, 0x410edfdcd214c3deU,
  0x4902234952d5fa17U, 0x1796fa3793d3bdbbU, 0xebf5d70c2102391dU, 0xa8031e14eebd0ddcU,
  0x2cf1224e22def60cU, 0x2ee15f3dde1edf8U, 0xd2fbd63b2d0f6e38U, 0x9bf12814e0c6f3e9U,
  0xe5eda3e6c0051d12U, 0xe72b20c62a12f8edU, 0xd30c48f3e612c3f8U, 0xfe0bb93f09500004U,
  0xe52f31ffeb1d8b52U, 0xf009bf552d74e323U, 0x7251603f9179f28U, 0xcb02e4192530cc22U,
  0xe2da14470016fbdbU, 0x9151ad5cdb7e3ebU, 0xc3e90258ee28def5U, 0x3419f00cf70597e1U,
  0xe9220c38df14c620U, 0xfc20d531062981d9U, 0x1ceae846090028fbU, 0xe5fb5fa5f796ff01U,
  0xf2cfe679181b50d0U, 0x111f4bae1b85ced2U, 0xf206ef51f4f048e7U, 0x262827fa1ce5d5c7U,
  0xf6de1a05fc0012c3U, 0xf408eaf7d2f80f07U, 0xfb111803fbfd00d8U, 0xf4f9f40bea06ffffU,
  0x2f1df0060bf5e2U, 0xe4fffff80d23fef2U, 0xfa90210bf80e0eb3U, 0x30fe1b69d8107f7U,
  0xf6c038faf40d02a7U, 0xb12efe5ceb7faf6U, 0xf0232ef8060cf6deU, 0xf40c05eb08f8faebU,
  0x10a2080e001c12e9U, 0xd0aded1c2bdf9feU, 0x7b31cfcfd1c03d7U, 0x151df2dfebd401fbU,
  0xf82528fc0515f8f9U, 0xfb0e070109040dfbU, 0x34f6f3cb02cefefbU, 0xeef1a05f00906f4U,
  0x2ee9d9f044bf2d20U, 0xfcac0b1124ee0dfbU, 0xa12bf2113e5381eU, 0xf1def12728fe0bfcU,
  0x400820a602f4e0e8U, 0xd130ef1f710090dU, 0x3eeaea8131c30bf5U, 0x9c4fbfdf7fa07ebU,
  0x2106addb2ad61b1cU, 0x13b6ea211907f7edU, 0xa1136dbf12dc6fbU, 0x42e26e30a071518U,
  0x14f52498fef8dbebU, 0x7060adbecf7fdf3U, 0xa01e5c50cf7fefaU, 0x9dbedf6080be8dcU,
  0x1cf1b1171501543eU, 0xfcf6f844e0ea5507U, 0x12f5a1261c077f5dU, 0xdd0eff4cd2d9480aU,
  0x8fec7fafef7543aU, 0xdb140336f8db08faU, 0xfbe6b4a60b1320f0U, 0xff05ef03e5db5235U,
  0xf4e7a68df4212df6U, 0x8f9eff6e54d27U, 0xf5ffc0b4e90223f6U, 0x2100ee4031025feU,
  0xdcfe00a0ebf3c3c5U, 0xfceec8dd011f382aU, 0xe01b008dd8faa29eU, 0x2de4d2b617333b1dU,
  0xed24f6b8f4fec3c9U, 0x28da0ec008371f08U, 0xfb120301020fe324U, 0xf208ef250717160dU,
  0xfafcf711f7e3ee01U, 0xe5f5fa09fa02ff04U, 0xee040604f2d4d1e6U, 0xe8d3f9ead9f4f2feU,
  0x807f50a05dce510U, 0xf5f5f70611030e04U, 0xffe3dd330d81e3eaU, 0xf1b20bf801f00717U,
  0xe3ebfd2beea3e7e3U, 0x108c0aeae0f7fe19U, 0xd0cf4000bc5ee01U, 0x9eb0ff60dfa01f2U,
  0x6efe62e16a70005U, 0x1dba13fc09010d22U, 0xf3fd042b06d5120dU, 0x14c309fefe091127U,
  0xfe3efa030af60c21U, 0xf7f6e32ff03efefaU, 0x18db0ffdecf2e22eU, 0x8af20eec04e00a02U,
  0xad6f4040bfb01b8U, 0x11fa0cdf04f0ecfbU, 0x838fc06fff1fc3dU, 0xd6f5f01af123fbfbU,
  0x178220f4f50fe1f3U, 0xd50423981a9d0709U, 0xe433d80f09f60faeU, 0x71f5f541fa20f6feU,
  0x4fd07fb04fcfd10U, 0xe70202f30cf30100U, 0xedb50df80202f8cfU, 0x2c0515b310c6fc08U,
  0xe657de05fbfc1d05U, 0x2cf6da7ff2440804U, 0xe071fea0667fd18U, 0xa5031fafafb0a0fU,
  0x63d003e7337ff652U, 0x6d77e83c36393444U, 0x23caf81d3841f747U, 0x1953fb316e224c37U,
  0x1d35f9e00143e113U, 0xf52352ef3bef0a1bU, 0x1dfd11f11560fc3bU, 0x4157201550151b4dU,
  0x2bf30e08281f2a21U, 0x2e482612561c7173U, 0x1a1bd907f101e200U, 0xea0554d928f7dfeeU,
  0x242ffe1b111404fcU, 0xce0b72dc20cb002cU, 0xfc140d00f31321cfU, 0x17212becfbf0254bU,
  0xc7f0bd2afe1444ecU, 0xfdf806e2f4cee5dcU, 0xb603c713b2221406U, 0x730fcfaff030901U,
  0xe2f11ce6d41be913U, 0xf926f70afa15050dU, 0x8cf98131f4163ef1U, 0xf428efebc8eee0U,
  0x870fbe11883d250aU, 0x13a000811150513U, 0xcb0323e0bf16e017U, 0xfe44f40a162e070fU,
  0xcd07af19051321f4U, 0xf902fefee1f1f3U, 0xaa06e9febb240806U, 0xe2b040805140702U,
  0xcf050ee5d207cf07U, 0x11f010b0c1302f8U, 0xef01f508e5dd1cfdU, 0xffe90bf208fefb05U,
  0xf30219fdf4cefeedU, 0x6d407fdf2061e15U, 0x10a19050bdf0a0aU, 0x14d80d1309081818U,
  0xe1f8ed1ce7c72607U, 0xfddd05f3f8030209U, 0xc308fd10e181eee6U, 0xed9ef7f8df091e17U,
  0xea150f04f4c0010fU, 0xdb50a14f70d1e14U, 0xf1faef1cfee41cfcU, 0xf004faf6ffff05U,
  0xd203f310ebb7edf7U, 0xe4c3f6fce8010b01U, 0xf008fc01ebe3f811U, 0xfbdcfa08f4f40806U,
  0x50c1ef1011defffU, 0xf10ef810f106fd04U, 0xb50d0d012206f5U, 0xff22b740bac61d14U,
  0x3d9fb11fe11fae8U, 0xec0fc119e8cf0b00U, 0x8df0d0f0116ed01U, 0xfe0ed402d10d070cU,
  0xe82eb250a1c06e0U, 0x915af0181b01f14U, 0x5d2f8170013fadfU, 0xf80dbd01d3d61505U,
  0x405fa150bfdfe0aU, 0x1fed607e81c0efeU, 0xcfdd4200ffa01f2U, 0xdefc7fec7020b01U,
  0x30ce60d0704fff6U, 0x9f7e5f1f10c09fcU, 0xf7b203feff06eb01U, 0x440dea0228081d17U,
  0x560e90e0dec0e0aU, 0xd9eb08fbebfde8e2U, 0x4f709fffb0205e0U, 0xda04feffea00fcfbU,
  0xfd810efbff17e3feU, 0x541eedf223f51c21U, 0x26cec0a0eea1400U, 0xe0edfe0eee13f0e1U,
  0x2020e02f70202d7U, 0xbffa05ffd5f1fcf7U, 0xf7ad0afdff11f229U, 0x2c0fe5fc0c020a1aU,
  0xfc2ff7fe03fd0bf5U, 0xf9070903fcefU, 0x1c0401f9fa06edU, 0xe5f70a09e8edfbf8U,
  0xe008e7130f19fe28U, 0xddff1205f9e00001U, 0xb9e5f219beebf205U, 0xfeddf030ee5f3U,
  0x910f3e0f1f6eef5U, 0x1e30bf3171ae0edU, 0x4c09fab005e9de00U, 0x26d7fc1918010d15U,
  0xb2ecea2b592a2912U, 0xbe293a2901e207e9U, 0xe6f6e015a7dad705U, 0x914dcd60604c9f0U,
  0xd601fc0ad9daf1cdU, 0x508f6e4201dc1d2U, 0x700ee98111def8f6U, 0x3cace90b16fe461dU,
  0x300d4654f181212U, 0xf4110f1d06e7e501U, 0x10e7f20e0923f618U, 0x14160613f2360a05U,
  0x10fc02110f1cf7edU, 0x22203ead9e1f8f0U, 0x10270602070bf3cbU, 0xe71223def7c3e8e5U,
  0x14e9fe070e1f0cf7U, 0x10180904ef02020cU, 0x171601150a2eff9bU, 0xc32a02d3bb8df4daU,
  0x1d2c0310fd1cf381U, 0x922110e7c89bf6d9U, 0x1041003ff0c0fcfU, 0xddfe000ce00efa02U,
  0x182b0011ff1e098bU, 0xa311e204bfdd02e5U, 0x1c1fe7130213ff8cU, 0xa90fed0cdf0a0eedU,
  0x51a01f3ed10fcf0U, 0xed030513140deefbU, 0x311b15effa05e21fU, 0xf190601fc250b0dU,
  0x42bbe0262ded0ff4U, 0x1e307dbdfca05f6U, 0x12725dfe8fef0efU, 0xf501f12b0325f0f2U,
  0x4a252ee003d3c72bU, 0x14fae90af92e070aU, 0x7fbcd6214cf11b06U, 0xf8d025cecdb11f14U,
  0x91121e9f4f3edf5U, 0xfafffc1de40bfeeaU, 0x370b26e90ce5c60aU, 0x11f1e705f51406fcU,
  0x45e3e20b3cef1907U, 0xfdd503dbe9e20520U, 0x607fe14e9ed00deU, 0xfb18f200ff02fdU,
  0x6ff7d9df04f7eef8U, 0x19f9090a25faeecbU, 0xc4d8dbea34023b04U, 0xf011e2e50213b9d9U,
  0xe6070d0ff400ffeaU, 0xfbf80a06f9000f0fU, 0x7f11caa9ea1ec201U, 0x1a22de1025eef498U,
  0xb9ead7d54d432d0eU, 0xdc58daedfcfe929bU, 0xe70a1bedef00f4e8U, 0xfaf90c06f3091603U,
  0x3b1904ade031ba10U, 0x1d0cdb1228f4ffe1U, 0xcff9de083e3f2c27U, 0xf549eefe0cf7ded2U,
  0xfff6fa02f5dfe9fdU, 0xf0e81ae84108ff0cU, 0xfaeafff3ece7f224U, 0x32ed25e64d0decfcU,
  0xf7ebf9f1fcfdf11cU, 0x32fbf6022d00fd04U, 0x400fff1f1e4fa06U, 0xf3f147e76727eb09U,
  0xf8f2fce5eee60e56U, 0x4eee6cdd7f33cc0bU, 0xeb03f0ecf8f90636U, 0x3e041feb32f9d0e9U,
  0xf80cfef9fafa0319U, 0xe4fa3bf01ff4f412U, 0xf70305efe7f21233U, 0x7fc53f728e0e20dU,
  0xfc0710edf9fe1108U, 0xf504080a05e8dde7U, 0x9141bd8b6b9d0f2U, 0x1109d0dcdf30ddd5U,
  0x5ee5022b5503daefU, 0x18811b0c0bbdfbfdU, 0xce05c9def52224fbU, 0xfd1c0c05100a1f0dU,
  0x4bec14182eb2caefU, 0xab1040fd9e4d2bdU, 0xa20b95e31b3014fbU, 0xef2930fe0efa2b0fU,
  0x3f916c0d6d01d09U, 0xec29ec00031bcff0U, 0xb3fcd7241e353a0fU, 0xe8eefd1ef7d6f703U,
  0xf91bfa9699f91e09U, 0xff41e9f61a46fcddU, 0x1af7f61415e8ef15U, 0x2aa106f6fff0bbddU,
  0xf9e00f09fa0df3fdU, 0xfb0412b3f4ecf800U, 0xfb811111ed1be9d4U, 0x1d210f95d9900700U,
  0xfeb10a05f610e6cbU, 0x231b1fb6e5b90bffU, 0xfb0f0d0102fafd02U, 0xfcfdf80c0216fcf4U,
  0x417f5060302fb03U, 0x5f9040ff21901fcU, 0x60ceb050500f40aU, 0x8fa01f1fe0d0703U,
  0x420fc0102fb0b05U, 0xf9fae936f118fefdU, 0x349f2040ef71622U, 0xdef1db63f1380005U,
  0x142ec070af72021U, 0xd7efdd50ff2cfe07U, 0x767000006b2U, 0x6e700000424U,
  0x59d000006ffU, 0xfffff6bb00000224U, 0x2b9e00000748U, 0x9130000079aU,
  0xffffe9c800000829U, 0x3b09000001eaU, 0x1672ffffff3aU, 0x4d500000d01U,
  0x2b10ffffc650U, 0x1889000014deU, 0x6fc00000359U, 0xffffe4b90000260cU,
  0x61f000004a4U, 0x20700000705U, 0x1f0909d61203f40bU, 0xfbf11df9f005fb1aU,
  0xbee3071b100ffbebU, 0xfe0aebeeff0d03ecU, 0x110805ce1e1ef51bU, 0xcf022710e00afa20U,
  0xb8fc0a10100903eeU, 0x8110bfbfe2a09f4U, 0xfd0202de2711fefeU, 0xd8031404e700fc15U,
  0xe1fd040000f8f2f9U, 0x110f00ebf6140503U, 0x3b08ffd11310f0f3U, 0xd9da30f2ed0aec06U,
  0xb6f4fe15fe0406f7U, 0xfb17e2f1fe170a0eU, 0x3314f7db1300f3fbU, 0x81e62700ea11fa0fU,
  0xb1fcfe0be9f610eaU, 0xec1fd9fdfe3e10e7U, 0x15f9fbe11afd0003U, 0x93fc100df204f521U,
  0xd3ff0512060f0ae2U, 0x612ecfcfc080bebU, 0x1bf900f51308edd9U, 0xf0e121fefb0d01f9U,
  0xd6fcf620000a0cfaU, 0x110af1f5f205fbU, 0x1fff000022fff2deU, 0xc1e512f3f7100a0aU,
  0xd1fff814fc041503U, 0xf2180e0c01f112f8U, 0x5f904f7260800f4U, 0xd6fa09fbf308f711U,
  0xe3f3fb1505070dfdU, 0x10d0af507e71008U, 0xf30513051505f6fdU, 0xed020ff906081a15U,
  0x60a02030bf2f6e5U, 0xb00fb090c03fefdU, 0x6080404ca14fe06U, 0x1ffafc19fdfebef2U,
  0xc04faf1ff0aef17U, 0x2f20aec14ed0c18U, 0x4f1f9f62ad402f7U, 0xe40306f3f2f53f11U,
  0xf5180205f01cf00eU, 0x40404f9f014e9dcU, 0xf10df9fd0ff0090aU, 0xeb070fff08f53117U,
  0x20608fd03e2e9edU, 0x2f2fb0c0dfbf9f8U, 0xfc08d2fbae170c0fU, 0x2ef8fc2a10fe81e2U,
  0x1cfeefdff200dc26U, 0x5d703001de5050eU, 0x16f50af425caf9faU, 0xe0011c0008ef4513U,
  0xe604240af410fb0bU, 0xeb0ffc09fa18f2d5U, 0xee0200f8000306feU, 0xf8ff020009fa2314U,
  0x40e07f709f3f2faU, 0x3f7ff0f0bfdfd03U, 0xfffad200ba200718U, 0x29eaf71c0ef787f4U,
  0x1dfbf9ea0a01e709U, 0x7f00f0016eff717U, 0x13072b050ef3fafdU, 0xf80518f70bfb2707U,
  0xf2110f0bfc100805U, 0xeb09fd09091200f3U, 0xcf08fef92d202009U, 0x4ff00fe2615d11aU,
  0xad9245513ce03ffU, 0xff06ed122309111cU, 0xda11e3092a1a2b10U, 0xf20d0f043704e212U,
  0xff22b2f26d117e8U, 0xa0b0b1f2714ea1cU, 0xf6e90af208170e1cU, 0xfbe6110637d9fbfeU,
  0xfcf63de120e903ecU, 0xefee05101904c110U, 0xe5eedbcbdddbe811U, 0xf7ebe9ccd01ffaU,
  0x1427eae7deff2540U, 0xfd702bcdbeec9d5U, 0xf3e8b6d9cabfba06U, 0x13f4e5bcb5a04cf3U,
  0x1146ecabde374a0fU, 0x2bcb06d4d5ef81a1U, 0x13da02dae7ebe508U, 0x10d311e0f19a2fe8U,
  0x21f07b1051d1bf9U, 0xf1c1eff603f0a2cfU, 0x1bfbf6dbfa001127U, 0x2f5f0f0f8d929ecU,
  0xf9f00b240cf30a13U, 0xf5d6f0f7e5edf2f4U, 0x2401d7e2f1fc220eU, 0x21307f9eabd3eecU,
  0xecf7250d17f13002U, 0xfcd1f21f1703e6e9U, 0x1df711f6040e29feU, 0xf6fe0b0d0ecffff0U,
  0xf3df170823f2e20eU, 0xddee031427f3e50dU, 0x1d71501030df1f1U, 0x8ed07faf408fd04U,
  0xbf109090affe001U, 0xea0e0be70406ff0aU, 0xfcca1ee90e0cefeeU, 0xdebf40bfb0b020aU,
  0x10ed0c1109f6b0fbU, 0xe20105fa06ff080dU, 0xf60311f50a0700faU, 0xdf9f5060205000fU,
  0x6f50a0f00fed600U, 0x503f90308f50607U, 0x5cf0bfd0308f0ebU, 0xfeddfef4fc05f903U,
  0x4ed02070ffecbefU, 0xd00809ef0202fa02U, 0x6cf1ce60712f1e7U, 0xfdd2e3fe020efa03U,
  0x6ee08fd0cef81f4U, 0xb402fefd08f80408U, 0xf70411ee0909fe00U, 0xfef0e7050809f30eU,
  0xfcfc05fefff4b903U, 0xf7f7f40605ef090eU, 0x9ff0103060c03f2U, 0xf9ea01f30504f606U,
  0xf9e7050d09fbd0efU, 0xd50a04f80a0afe00U, 0x8fbfffc0f10fde8U, 0xf8e8f4fb0f0cf302U,
  0xf8ea0c0815efb2f1U, 0xca09f70310000710U, 0xf70309f60d0cfcf9U, 0x2f6ec090c06fc0bU,
  0xf8fc0aff0aeed403U, 0xf2faf80a09fd0810U, 0x1f0afb2204e9ddedU, 0x3958d20fd12121fbU,
  0x71d060ce6fc0a2fU, 0xbe2f8eabee0210aU, 0x23d321231ff81302U, 0xba03cf16071ed917U,
  0xbc0819fef6caeb0dU, 0xf3fadd2c37ff3223U, 0xb6030526bae3f415U, 0xfbbfb0917edcde9U,
  0x1bf4cccdf52807edU, 0x3010f05fd01f9c4U, 0xd21db4a03edbac0U, 0x3e4ff8eed40033d2U,
  0x19231606e7102104U, 0x1f05fab581d90a02U, 0x32f7f64937f70d0bU, 0xb11fcc120d2bece3U,
  0xa7ec0ef2d6d4feecU, 0xd9f1eb131f193f18U, 0xc5fafd0febcbec2aU, 0xeed2e52b0700d500U,
  0x2befc7bee21de310U, 0x1ce007f0030e16e4U, 0x110fe33607fad9b8U, 0x40160cf3e8f318ceU,
  0x270f190d05f30bfaU, 0x170dfed3c7d9ff0aU, 0x3c20e71d3cfc0d0eU, 0xd81bdef8090801d4U,
  0xc0d50c00dde304d8U, 0xcdf3f8f2ed0e0a0dU, 0xdc0bfffb08dcf72bU, 0xdc07de3e1816e119U,
  0x12e7fbd4e206e212U, 0x1eeaf7f507191912U, 0x23031405b7b1fc18U, 0xaf710f3e2f11ae5U,
  0xd82cf7c0c6360912U, 0xf4f61afbde2bf6c0U, 0x230433feb591fb0cU, 0xb03def8f9d42a14U,
  0xcd4ae5c3aa44f844U, 0xe7d5391a0041ef81U, 0x1a001df2f1ecfe0fU, 0xf5eef00319ea0516U,
  0xde0c0e00ee1bf31cU, 0xfbe23d100a20e2b5U, 0xd7f4db0a032702faU, 0xcf81ff4fafdf3edU,
  0x1be6fa031dd315e6U, 0x1814dfe8f7f7fd26U, 0xf41800f2e2f811faU, 0x1012ea19050e00e0U,
  0xec11d7d5e2f4ef06U, 0xcfe8ea14e2081214U, 0x17f73edfceda0e1bU, 0xf4e8df090eda1affU,
  0xc726ded4e405d21bU, 0xd2dc1014f51cf4d4U, 0xeaf7d4fc4932f8caU, 0xed1212f6010dd212U,
  0x45b90a552bd611d3U, 0x2917bcfc1fae0d24U, 0xd305c9f862450ccbU, 0x71a0014161dc60aU,
  0x4ca4164b38b80bceU, 0x1413a30c02b01859U, 0xf503fbfb21231309U, 0xefcf31e0805ec05U,
  0xfe0010510dfe9fcU, 0xddfecffdf0f6113cU, 0xdc0100050d0921f0U, 0x10d12ef6fc1ef7deU,
  0x4e6112c1900fbd1U, 0x12ff41df3f118faU, 0xe7d8d310211c2be8U, 0x15d1220cf243d7feU,
  0x1acc063b23e9f7d5U, 0x34feb1300ea4524U, 0xf5d50310070b10f1U, 0x13e104190121f610U,
  0xeef11f3f714e1feU, 0xf82204080bf53517U, 0xf1eef5140a26010bU, 0xa8f4fe2063503beU,
  0x6ff202232feeac8U, 0xcb5bebf90b080405U, 0x3b4d711031c1bf7U, 0x3892a0c0479fddaU,
  0x17e5111e25f5bcd5U, 0xc07ff8f70a0f5c17U, 0x4c9f1f1fcfd10d9U, 0x7d9e42707540813U,
  0xcf310feeb0ab410U, 0xf0320e110df55813U, 0xaddf81add1ae7faU, 0xf7a93edffe1732bcU,
  0xe52b0ef32418e8ddU, 0xce42f1dd051cf4fcU, 0x15cbf702e4ffd4f2U, 0xefa318edfd4952ccU,
  0xfa2914dff827d4edU, 0xb643f0f4030d18ebU, 0x14e7fadcefeee9e6U, 0xf3fee316033b2afcU,
  0xf10d0be1ef1dd315U, 0x113fbf5fcfa32f3U, 0xcde3d5db280cf20fU, 0xb1ce406f11e2536U,
  0xfcf6f419f62c4a26U, 0x3a08c52d11e3131fU, 0xd5dc1bf105ff0614U, 0xfe05f716f01e3e3bU,
  0x7f019ebe54922faU, 0x8f0b710cbfa3808U, 0x2cc4728f4fb02faU, 0x17db1fd3d7c43df8U,
  0x294d28b4012dd4c4U, 0xed28e0e3de24d5e1U, 0x5dff41e0efb0005U, 0x1cdc03d6f023e7eeU,
  0x108f9f514063018U, 0x182d25ec2010fce6U, 0x5fdace23c070ee7U, 0xf82bbb14027bd970U,
  0xdfd6ee54f9013d49U, 0x14f0dd1432df7f2fU, 0xec000d0d180d12e4U, 0xedecd41302251c3bU,
  0xb0a09eaec3f0d01U, 0xf8ede22718154904U, 0x19d53446bd05f40aU, 0xeabd13b904bceeadU,
  0x11d03ce29df09d7U, 0xde3570efe828b4f8U, 0x32dd01e3f100fb0eU, 0xbffc9f50f48b9f7U,
  0xe8e7d50607bc3434U, 0xf3ee30ed13ea26f8U, 0xc14ebe21c0312f4U, 0xfd1bbd2b2d39dd32U,
  0xe8d7e5fbedf30b31U, 0xbdafdfd0cd8391dU, 0x87dbccf6ee1cffcbU, 0x451ef6160f14f31cU,
  0x52e2f4f820cb1ee9U, 0x53fcad0a25042115U, 0x95d4c41ed962f5dbU, 0x7ffcf21b1c0ccf04U,
  0x71d316f04dd115d1U, 0x4a0eb21508fa0840U, 0x1a03fe12e233f4e5U, 0x21f2f9f2f210def3U,
  0xffbfd1414ff08dcU, 0xf70bf8fee1fc1419U, 0xeac3f13ff023dbbfU, 0x4bfe09f4e406e5fcU,
  0x48ea07ec1f2039ddU, 0x491cf6d509f40929U, 0x36f92f36f9eedfd0U, 0xd6fd03cbd01606eaU,
  0xe30df603ec3d18f4U, 0xf30f2cd9fbfa1305U, 0x3f1036e71acbfbdeU, 0x9bf7e8f3ef1e1e10U,
  0xb317f80bd123f722U, 0xd7e312f8020621dfU, 0x37f9250007dffae3U, 0xb9fe0bdbef0cfef8U,
  0xdefc0002d416f910U, 0x9ff0be9f5f600f6U, 0x3f122ef118af08eeU, 0x95050beef9111cefU,
  0xb60af80bb70efd10U, 0xb2e91908f3040cd0U, 0x70407ee15df0902U, 0xf3fbf8100f13060dU,
  0xecf505f6f5f6f603U, 0xcde9f80602130dd6U, 0xeefff2f1f1f4381bU, 0x20100f024e4fde4U,
  0x1203e004000c0ae5U, 0x8e50930ddf6e8fbU, 0xf818e2e8fbed5b13U, 0x319fdfc28e20cf8U,
  0xf51be0fdf61e160fU, 0xfd7fb29cdf9ddecU, 0xff06ddfb05fd2cfaU, 0x12dfd120ff50f13U,
  0xf12bede4021cfd1fU, 0xae70c09fb01f9efU, 0xfb0c10e904ff4743U, 0x603f00042dde2ecU,
  0x4ddf7161de702eeU, 0xedd10163fff9ec0cU, 0x1bfae503147f48U, 0xf913f0fd65c9dfedU,
  0xeceaf11426071cfcU, 0xdcfff71dcfed100U, 0x401ef030c0c4f0dU, 0x320f4fe37e5ff0bU,
  0x20fe4e90e160507U, 0xe3071ffb0ae1f0U, 0xff0c20f0f8fa2144U, 0x600e1042ae1e4fbU,
  0xf8eff5eb08fcfb1bU, 0xf7d1fc4af1eeea07U, 0x170e13e6e8075453U, 0xeee7dfeb3dbce9e8U,
  0xf607dbf8140c1e03U, 0xfdccf947e1fac6edU, 0xd01100bfe04332aU, 0xfaf3efec2edcfdf9U,
  0x701f3d60d0d03f7U, 0xf6ebfb1e0104cde0U, 0x3103f03ae41bdff1U, 0x3fa4d09e2f9ceeaU,
  0xfbf000f714fa07ffU, 0x320f6d317dbf70dU, 0x3424101412deb102U, 0xd6321e2eec29010aU,
  0xff04d7f4d600fa48U, 0xe6e808faf4ce40f3U, 0x14f821ed3be4ee04U, 0xf50aec26ec192620U,
  0xfb1dfd11e2f70520U, 0xfddf1103f8dd2300U, 0x1df91744eef4cee4U, 0xecef4008d1e9fde3U,
  0x1804d1e8cf13e410U, 0x1102d007e8f4ecU, 0x2063af235a081f3U, 0xfe1c1027ad34321dU,
  0xb2ff3e8a6121331U, 0xf0e20cc9ddfe4bd9U, 0xeaf6090f230dd308U, 0x5ef021ded1c221bU,
  0xfd311a0bebf625f5U, 0x250804fcfb2119fcU, 0xedf30f1213e3c304U, 0xff030c0dde0a1706U,
  0x11fb0404db16eafcU, 0x1070ebff0fe00e0U, 0xdefd030e1efdb0f5U, 0x1f05fa00b130231bU,
  0xf713070df2f325f2U, 0x18ecf4b8e23123f6U, 0xe502e222f90f0d1aU, 0x7f309fa0a0b0010U,
  0xe70c140ffeec20f1U, 0x1a03f5030d4c0c0dU, 0xb7f902fbc7030d00U, 0x46fc02ef0500042fU,
  0xfcf90ffd0f15ea07U, 0x1bf7280c082f08feU, 0xce090c0ebe202725U, 0x36060beb18f1043cU,
  0xdf081de92b09e9ffU, 0xf92830fe5bf7f5U, 0xe10e1310d01f2028U, 0x1bfe1ef109f60e22U,
  0xf20715ef1f13fffeU, 0xfe0328f6f742f00dU, 0xccf5fdffbbf810f5U, 0x2c14ffe1020a1d2bU,
  0xddf309f01bedf112U, 0xdfb10092048060aU, 0xb513f10681153915U, 0xa2717d711fd1252U,
  0xbef113d23cd10414U, 0x601f621197c0afaU, 0xcf17081794121e15U, 0xf50e15e107ea0b2cU,
  0xe6ff09f51bfa1707U, 0x70e070443f3fdU, 0xee80e0feefb00feU, 0x25fbfcdcff011218U,
  0xfa0710f213e10014U, 0x303f8fbfef7f104U, 0xfa0e1808e1f61100U, 0x20ff9dc07ff1239U,
  0xdbfa12f815db111dU, 0xf907f102f41cfe07U, 0xfe0e0509e3011107U, 0xf50ff7f5fdfe1227U,
  0xf7051207f2f2130cU, 0xf6fcfcee120209U, 0xee04cee7e1e1b3e1U, 0x12fa1800d6f30fdfU,
  0x5e5fbe2d0f80d14U, 0x17f7f1b7f7faedceU, 0xfc0ce2d4f0d899d4U, 0x913fb1fb2041febU,
  0xfef613e2c1ebfc2aU, 0x7e3fcc2eb060bcdU, 0xe0a02ecf6f6deebU, 0x406f320e9040500U,
  0x115f1dfece81cU, 0x1ed0200fb110903U, 0xed07d4ddeeefacf2U, 0x15eb1f13d7f206eeU,
  0x11dd1af0d7f8170aU, 0x13ffeea00af3f5d3U, 0xff12dec70cf781edU, 0xa0e0a2abb0c0eedU,
  0xfddf2f03cbf70f27U, 0x13e2f1b3070209dfU, 0x100c00e915fed204U, 0xef08f321e00700f0U,
  0xf5f81909e5f0e619U, 0xe901ebf70a0903U, 0xeff8eed7e703d2fcU, 0xada0416f3f0f6fbU,
  0xee102fdf3f60c05U, 0x14f4f9cd0aecf7e9U, 0xff00f3cb040bb3fcU, 0x6ea0f11cff602e6U,
  0xfbe5110bf00a0408U, 0xfef0ffd502fdefe8U, 0x120210e91009e114U, 0xf1f50511ecfe10efU,
  0xeeff03fbfbfce50fU, 0xf6f7fffbf6f6f801U, 0x341d07def3f31329U, 0xfef7def91601f8f7U,
  0xb710f7f6f3fdf018U, 0xeade2a27f93700ebU, 0xb0d0d03ee01163eU, 0xd1d220d60ee314f5U,
  0xc4110c00fcfef3f0U, 0xdb0f12efdb42ddefU, 0xe006d90bfbf7eff1U, 0x3191604f3fe0811U,
  0x39f1fffbffe910e3U, 0x1e1ac8fa07da0302U, 0x32340edaf3e9234bU, 0xefebe800110103ffU,
  0x9d14f3f4f3f7e924U, 0xc7e4321aed3f02ecU, 0xd8fd05fae0ebfd13U, 0xbbe916fbfeeb0a0eU,
  0xc0601fff9eaecf7U, 0xef16f8fd130701f4U, 0xd2dae0020315cdc7U, 0x431b0824f409f820U,
  0x7feb0eec01f905edU, 0x2ffd8efc20b00815U, 0xfa1ef2fef3fc0b36U, 0x3effff1ff020f07U,
  0xb710040c01f7fa08U, 0xe90211fcf42bfe00U, 0xe3ebfc14fff102f8U, 0xe3000c0f02030d11U,
  0x31f409fdf7fcfae8U, 0x70df80211de0103U, 0xfad5fe0c170aefc8U, 0x30030119ff06fd0bU,
  0x5ee40b000610fbecU, 0x29feb7f910b90705U, 0xa0a63b07281e0414U, 0x2ede15272fd400fbU,
  0x63f51bb81dd05aecU, 0x4fef90c2ddacc1cU, 0x4a352d81a25ddeeU, 0x3681540b1deee590U,
  0x19d62fce21bf13e4U, 0xc6211de91beac523U, 0x2e161abb1812ecf8U, 0xfbd219ea0a13c7b4U,
  0xe2f5fa24fabbf218U, 0xa5260bee07120211U, 0xbed94917f635f205U, 0x1ce9452728cf0bf8U,
  0x3f1b199728eb4fd3U, 0x2219dd2c30f8f51cU, 0x2ed665d1e245ac07U, 0x37876d20f8ce0095U,
  0x10f22ab130d608cdU, 0xe03cdbfe2b19d31fU, 0x3f1121b8e121e828U, 0xd5c024fbeb0de4a5U,
  0xd0f00bf916dcdc02U, 0xb739e3eaf8240915U, 0xc6f2002af002d6baU, 0xfb193d01e9f5fd07U,
  0x190506c5000b3ac2U, 0x2127010121180df0U, 0x2c0512fbf1f6c7cdU, 0xfcea53eddff601d1U,
  0x9ec12effd0a1ed4U, 0x151b0bd81307fce8U, 0x4114f8e215f00008U, 0xc2ee1cf0dd1114d7U,
  0xddf60922f90ffff4U, 0xd8190df6e81507eaU, 0x4af61ae3d0b2ef46U, 0x2dd7df0002ac47ceU,
  0x646edd0a5521236U, 0xf19c11f1816abcd7U, 0xebf404d0b9e11407U, 0x2bdf19c8d3f134b9U,
  0xd330dbda00fd09d4U, 0x23f2f4d2ebdaf8aeU, 0xf60ddf08000916e8U, 0xfc1a28e0fd0dd602U,
  0x11c1de132ace11d2U, 0xf12ef5fc1bdd0fffU, 0x1adb3bbe9db30c46U, 0x43b7fdd2bed26cd4U,
  0xb660f8ace5400601U, 0xfebef5cce94ad7b2U, 0xf4f8e5ef262d10fdU, 0xf30f3dc8fc1ec9c7U,
  0x22c7b84648c20fc4U, 0x124fd8f52eaa1f22U, 0xed03de0a30170bd1U, 0xc9191cdf082ea6fdU,
  0x2aacfc2e2ebc20daU, 0xf22c030c1bf41e2fU, 0xdfed25c0d3ff010cU, 0x20c600daf2072befU,
  0xb2330ae31010f9edU, 0xfe05ef192ef20bd0U, 0xefffc9fb58230ad7U, 0xe01d28eb171f9af5U,
  0x34a7d33c25da13deU, 0x1031ccf916bc2032U, 0xf4f2f70b30eae4e7U, 0xdbfa08f9e102fef6U,
  0x1420f820e90e0a0dU, 0xfd0f20dfc331f90eU, 0x5fcfa0302e60d03U, 0xbf50de80003fb08U,
  0x11fd0011ef05fbf0U, 0xf50526fc09eb00f6U, 0xf202f3dcf2a40503U, 0x16fef7def709e6f2U,
  0x11f00005c7fffff4U, 0xedfd03fdfffb0ec5U, 0xfa0afce7febdfcfaU, 0xa14f0eef40af8faU,
  0x1f60107dcfafc00U, 0xf7fbf903fd0f0dd4U, 0x600fdf300d202feU, 0x200fdec0405fc02U,
  0x12ed0525cd04ffedU, 0xd6fbf5fe0beafef9U, 0xf409ffe1fa8101e6U, 0x204f6d00013e8faU,
  0x12da0a15aefff5e4U, 0xb3ffd9fb02fb01bdU, 0xfbf900ee04b2fef6U, 0xfd0801defa04f6f3U,
  0xfaec05fbdefaf1f9U, 0xc904dbfef21202cdU, 0x300f8edffe608fdU, 0xe0ef3000202fc08U,
  0x15f70227d209fefcU, 0xe7f3effe01fafef6U, 0xfc07f1f6ffab04e7U, 0xfe0e00e40a07f7ffU,
  0xfea0819c9fdf9e4U, 0xdef7c9020707fee4U, 0xfffaff030aca0402U, 0xf5020ceefdfd02f7U,
  0xfc0efefb04faf8U, 0xda09d4070420fae4U, 0xe7fefce611f4d6eaU, 0x24e3ecfff7e917cdU,
  0x19f81ce1e810eebaU, 0xf0fd0dec9dc8f6f8U, 0x70000113a00f6f2U, 0x1122e611f70828e2U,
  0xf104371ffeed10a1U, 0xf918ebf3a029f408U, 0x90f121421013224U, 0xe921f31bef09290fU,
  0xe8133f33f7d01c07U, 0xf10effdfb281622U, 0xf117fed407e8c0fcU, 0x706f302edef12d5U,
  0xff425faf43826c0U, 0x50705efb5b6ea02U, 0x8f507241915fdebU, 0xd0cf6f101e41ccbU,
  0xfd00321610100681U, 0xe51bfe078f25e0f5U, 0x17e4282c2b151d04U, 0xfa08e21e0b163710U,
  0xec064e2a01c0eff4U, 0x3fb0910e62a1725U, 0xfd0100f2fbf2d9deU, 0xfe0600f7e5f909daU,
  0x15072309ef2f25d7U, 0xf0ef0e5e1c8f800U, 0x1af610241b01f3efU, 0xfe04fce5faf712d6U,
  0xfb0c2b12070812a0U, 0xf3220f0abd00f7fcU, 0x13ea2b221a0c0404U, 0xfcfbea04050a35feU,
  0xf2143d1408e0ebebU, 0xeb0f1111d60b0d0fU, 0xd8fef507170afdfeU, 0xec2616f9f4f8091dU,
  0x60cf3060d001b06U, 0xd06ee02010bf708U, 0xe3fefbfd1e0d1908U, 0xdd1b0e0c09fff317U,
  0xfbf4ff0902ec1104U, 0xefbe90de705ff24U, 0xfb100a0409021311U, 0xf10609fd04f30301U,
  0xfc020608fd0907f4U, 0xf90a0003eb06ef0eU, 0xd0f3e9f9300d0ae8U, 0xec1906fd07ffea1dU,
  0x22f4f51a09ca31f0U, 0xcfd95180408ff08U, 0xccf7f3ee311723eaU, 0xe910f9fe15faec15U,
  0x3ff02130db91bf8U, 0x1801811aec08f50eU, 0xf90c03fd10061410U, 0xe00c00f8fcfaf706U,
  0xed01070a07f411faU, 0xf503e0fbeffff40cU, 0xe8f8e4f31e0b01e3U, 0xf8eeee040005e516U,
  0x39ecef16fdec19e8U, 0x14f1b401fcfef603U, 0xe2f8f0e6160a0df9U, 0xede4e3f3fff8e804U,
  0x807ed0b0ad311f6U, 0x5f6a209fd06f5ffU, 0xfe00feed0b0805f9U, 0xe9fefaedfcfcf108U,
  0xf2fd000d04eb08fbU, 0xeb00f0fbfcf10101U, 0xfff0fcfbe2f6fdf9U, 0x100f06f00208e619U,
  0x8ea04241de507fdU, 0xe4ffe80011fd04d6U, 0xebe30d02c7eefaf7U, 0x16f800defefaf318U,
  0x4f8122312ebf9ffU, 0xfc06fff30905f7b3U, 0xfbee0e0dd3f7fce6U, 0x19f5fbdbf8f50005U,
  0xa040913fe03fefbU, 0x80ef5fd00ffefbcU, 0x102f902c3dffff1U, 0x70ff4e2ef15de25U,
  0xfedd040606d506f4U, 0xe2f5c7e3101305afU, 0xecf3fa1a99d9eff3U, 0xf2f8fec4e9ffec16U,
  0xfbe7171800d70bf0U, 0x605dae9041bfb81U, 0x4f5060fbdebf2e8U, 0x30100cdeff2fc0aU,
  0x9041110fd0210eeU, 0xf09e4f2010ef198U, 0x1007fe03d0e807f4U, 0x303f1d9f808dc16U,
  0xffd303fafbf00cf2U, 0xfdfff9ef02edffb6U, 0xfff070dd5d607e7U, 0xf001fac8ee04e90eU,
  0x3d70d1df6e70ff2U, 0x207f4eafcf6fe9bU, 0x80beb04efedfae6U, 0xfe06f9e2f7ff0309U,
  0xa03121bfdfe13f5U, 0xbfef8f107fefcbdU, 0xddf113faf1dbf6dcU, 0x2824e11cfb11f00fU,
  0x16f2e7dae113f3f1U, 0x19f00af9feef22f0U, 0xdfe9391ed7eedfbbU, 0x47270203d7f1fd06U,
  0x160afcd0f81e33e8U, 0x36f3000614fa06e5U, 0xfee52920d40cf1e5U, 0x350718f9fbf000ddU,
  0xefcefe816121dedU, 0x2305f4f8ff01f9f5U, 0xdff402ed06d20fbaU, 0xf812fcf7f118de0eU,
  0x5e2e7dedf120debU, 0x2100fff4eae311d1U, 0xe212e3f6fac90b81U, 0x73612e3e606e403U,
  0x14f0e3e2e61a4abbU, 0x33f2fd01dbdc10d3U, 0x8f8f3faf3e9069fU, 0x32119f0f701fef2U,
  0xfdf6eaff0622c1U, 0x1bfcf7eff40502ecU, 0x1f150007180218eeU, 0xe8ec15f60d09f205U,
  0xeaf4edf90b020ff1U, 0xfe150a2af00dfcf3U, 0x1e18e6031eee3adcU, 0xbf0b09e2230df105U,
  0xe3f3e3fb00f110eaU, 0xfd060832e61713f7U, 0x2a10e9fa17f734e9U, 0xca14f5fc16040e08U,
  0xe507f40904fb08ffU, 0xfcf7040f01150afdU, 0xff01221e1906df28U, 0xe50a11f0c6060312U,
  0xede9f926082dd6ceU, 0x42f24b1dc12ea0aU, 0xfe1bfdf210eee0feU, 0xb73afdfe9e331d3aU,
  0xf2eef009eef6dde7U, 0xf10414cce51631dbU, 0xef0afe00fe0a1610U, 0xf6fdedf2e80f0d30U,
  0xfbe8090c0acbd9feU, 0x1ff2fff9060b1809U, 0xf1c82bf005e7dad5U, 0x5f43608d6f11f00U,
  0xe9fa190fd80fd60bU, 0xef2a9dedf7efe7f1U, 0x16f21ca41fc2e6a2U, 0xf9404c37d82c5d21U,
  0xdf0020e4d4172e32U, 0xf5fe85d8b0f50dbaU, 0xee71ae109f6412dU, 0xf6eefd0612152e10U,
  0xf7051df304f5effcU, 0xfaf2f4f8dd0202f6U, 0xc0b1e8caec1a0ac8U, 0x10b2f63422eff91cU,
  0x4defdcf50ff0ed15U, 0x2003c9410fc9eb19U, 0xe5ac14a6f74919dcU, 0x56b4232d28050518U,
  0x3406080c27fbf005U, 0xeffa8125d0d90208U, 0xfd1af1edf1263d1fU, 0xec30ff12eea0f05U,
  0x230014161af9ecU, 0xe303ef0cd6f1ea17U, 0xc9d0e23e60de7c8U, 0xcf01ce0dafdfd10U,
  0x16d40fea09eecdfeU, 0x71708d210b4eef7U, 0x1fb8ec4f202ad9bdU, 0x6fe2fece409f726U,
  0x1f9e2aee30fcf801U, 0x1333b2e11eabee00U, 0xf7f21216160ef6f5U, 0xf3ecfd0ffefb2711U,
  0xeeea0400030d061bU, 0xf501fbfc1132fe09U, 0x3482fc2e3114f7c9U, 0xe5ed38e701ed0205U,
  0xbaa20dd1401eaebU, 0xfa38d4f60d81d4f4U, 0x2caaf52936fdfea4U, 0xd5f62df308060a0fU,
  0x12c115eb172110f2U, 0xe71cd20911dfebfdU, 0xbd0700040bf80aefU, 0x1cd700160806331eU,
  0xfe11140002150f13U, 0x14f52303097606fdU, 0x25efe90b2d0ffafaU, 0x2f71e090be3eff9U,
  0x4e5fafd200613ecU, 0xf61dc72809ddf200U, 0xee02f7f103031cfdU, 0xe0608ff0ff40e0bU,
  0xfa04f80c19270bebU, 0xeef0011dfd40f504U, 0xbf2dee03f3051d1eU, 0x16ecfafc07061517U,
  0xe733100d010b190eU, 0x18ef3bf5f169fe09U, 0xff02e6f7ece1fcfdU, 0x20bdc130bf4eb00U,
  0x808dd05db04eb10U, 0x5e4ff0fe70e02e5U, 0x1eadff118111704U, 0xb00dffc310ad4e3U,
  0xdcff33812d6fdcfU, 0xf4e5e51805fff9f5U, 0xfe00dd03192014f9U, 0xf817fbf71117cbf6U,
  0x8c8093e29ca13d4U, 0x40ee60614f20926U, 0xf4fc0a0bfec3f30dU, 0xf719dd22d9f511faU,
  0xff2bd4aead2add3eU, 0x1acc1b019b0204e9U, 0x2f114f1cb8bec1fU, 0x16e8b8e3b0cc3af1U,
  0x43981b7852def30U, 0x9ca19e5ac04db8aU, 0x30205fbe9d30114U, 0xffcdbe2eaf61ae3U,
  0x6d202e9fd1c05U, 0x12f804eaf307f4abU, 0xfb1cf2192b330e0eU, 0xe41600131c1fe61aU,
  0x4e11d381ddee9f3U, 0x304071908031629U, 0x103fbfe13fa291dU, 0xfbfdd927ef0d07fbU,
  0xf7f1dce4eef9da23U, 0xfae907ecbdfd0b37U, 0x20f07f6eee1fd18U, 0xaf1def4dffd22feU,
  0xff05baf2dbf3fb13U, 0x4f70cdde9000400U, 0xe000d16dd0e2325U, 0xf3152af00b05f6d1U,
  0xbef5e4f23fd326b2U, 0x81ee916ff5209e9U, 0xf2f3310b981e1c1bU, 0xfe2120f904fcd6b3U,
  0xeddac1d234ebfeceU, 0xf007e70a00520ffaU, 0xd4ed16d8c104faeaU, 0x121f02f8f009f6e4U,
  0x12eeddde09f1e8ffU, 0xfff000fef71816f9U, 0xf7dd331b2a290af5U, 0xd14d2fe91319b7f4U,
  0xfda719284ecce1c7U, 0xd14e91032f61e1cU, 0xebac511c261d03ecU, 0xe84238fa0e23b2cbU,
  0x4081172d38d6d2caU, 0xfa16f3e112f2173dU, 0xf1c425fd0cf1e8d7U, 0x111f1cf6ea0df1dcU,
  0x2dc71dfcfd09fceeU, 0x21304eeeee9030cU, 0xfce2180e4508f7e3U, 0xd75a1503f909d518U,
  0x1ff9ff260120fc18U, 0x12fc0cfcfcbd0c18U, 0xebb11f1546faf2e2U, 0x1251f02f1fee1faU,
  0x2807132afe300200U, 0x170617dad8d8fd1cU, 0xae6f21c21eddbd0U, 0x70218fed5f81ad8U,
  0x9182611f0190feaU, 0x111206ded6faeb00U, 0xf60b09f718f6fafaU, 0xbf0afa05e809f40fU,
  0xf7ffedef11f90bf1U, 0xd10809f70df8fee5U, 0x98f0f4ff0037e4d4U, 0x32edf931ff1cec2eU,
  0x32f4e8042ce4fd08U, 0x650726fd0f1b1424U, 0xa9efea1ee245e4d0U, 0x6bf4072af50bf42eU,
  0x2bfffe0e030f0a0bU, 0x43131df70005122fU, 0x33071a1c06d0020eU, 0xe50208cffae7fdd3U,
  0xd1f7fff1db200dfdU, 0x9520e2f5e4f3e2d6U, 0x1feb031412d4fddeU, 0xb9eff70cef0dfb12U,
  0xfee1eef5fb190df1U, 0xb1921f6fffaf8dfU, 0xbbeae0010b09f5c3U, 0x9f8dd07f71cf52eU,
  0x29e00411f612fcfbU, 0x660424f912041304U, 0x12fc0efde4f90c0dU, 0x49000cf715e905e0U,
  0xf0f10b0cec02fe06U, 0x8111d816f30aeff9U, 0x69ff200016a30d02U, 0xc6f70fc805e008acU,
  0xd1f00209c80a06f0U, 0xc718b300efe8e6c6U, 0x14f209f030bffdeaU, 0xa4fff1f705040305U,
  0xe8e8f9faf00c03ecU, 0x3905f806fe18f9c1U, 0xf0d4039fc9d81ee8U, 0xda228ff2dc024f0U,
  0x2a2ac7fc0357fdfaU, 0x90af8281001c0c4U, 0xec05a6f04b150f26U, 0x2569e4252b43b7ffU,
  0x17e31b1609851cb3U, 0x601e64ad4eb5838U, 0x20054402ded70bb9U, 0xc003e00ef0ef20f7U,
  0xdc57e8ddeb24d733U, 0xfcd8040b0004f10eU, 0xe9ebf593b0df07a6U, 0x3992c4808d31e09U,
  0x4a1a90d1f476f912U, 0xe2de05034d09b2ddU, 0xebfbbd043424100eU, 0x4958ee063118be27U,
  0x28a376111e81189cU, 0x908d83ab8e52826U, 0x23050b2efec42eecU, 0xbef6dd2ffce109ecU,
  0xb15e27dadc41d91dU, 0xeff30b100612ec17U, 0xeee810b7b9f3ccd7U, 0xf6a9f632d7bf07fcU,
  0x460793cbe15ed847U, 0xedd13ded33f5d6fcU, 0xd90a04fc1c1802ecU, 0x380cfaf42afcfb04U,
  0x23d555062cc20dbdU, 0xfe00ea37b6f4eff1U, 0x250adc100dea2718U, 0xbf06f12d05fdecd6U,
  0xc60e30ebe211e317U, 0xdb0f081af6181816U, 0xfb051303fbff0002U, 0xfb03040506fb0612U,
  0xf913fdf20803fe0aU, 0xfbf208160109ff02U, 0xf1020d06f1021e19U, 0xfdfdfcf426cbff15U,
  0xc05f1f4010af805U, 0x4d30527ed02d304U, 0xf80efeeae8ee3318U, 0x1f15e5d504cb17f9U,
  0xa0cc1f2f1f901f7U, 0x12970c0bd105b4c7U, 0xff0706060bfcfafeU, 0xf90d0700fe020612U,
  0xfc1008f8fcfe0906U, 0xfff0070505f80303U, 0xfafe0bfc00f90e1cU, 0xf2f6f8fb06d3fb0dU,
  0xf8f905f71300ffU, 0x6c30327f0ebe202U, 0xafef9e7f4cb241dU, 0xb0cdabde9a113e3U,
  0x900afece30d0cfeU, 0x48107f7b1009ac0U, 0x402fe0c0504fc01U, 0xfc0a04faf8fd0700U,
  0xff0a0afefff9fe01U, 0xfb01fb00010401feU, 0x20bfbfe07040f11U, 0xf409fd0005faf4fdU,
  0xf8ed0d11fefe07fcU, 0xebf914f8fc0602U, 0x1500f7fcf3dd0f09U, 0x4f9ebf2dbcc08efU,
  0xf6d602f20b0af8U, 0xfbdff8f0e60fe2e4U, 0xfaed06f0fbfdfef8U, 0xfef5060604fbf6fdU,
  0xaebf8fefcf1fb0bU, 0xfa08020904fc04U, 0xeda7ecc801f2e6c1U, 0x13ee1414fdf902faU,
  0x1be306faf6ff1a16U, 0x10fedaee0b00f7fbU, 0xd4f1d705fcf6e7U, 0xf0f130dfd0d0900U,
  0xf1fc161efcfa2402U, 0xfffee7f7f409fcf8U, 0xfedcfdf5fc04fff5U, 0xf500ff0f01fc0201U,
  0x6fcf3f4fa04150bU, 0x4f40b0d0601fe06U, 0xf481f6d2f709f2bdU, 0x8d2021701f4fefeU,
  0x18f802ef020e2912U, 0x1efdff0805f9f90cU, 0x4c1e8dafd0afeefU, 0xcec0dfbf9f1fbffU,
  0x1f9061303052c08U, 0x201f5fd03f5f4feU, 0xaee080e0109fb07U, 0xf100fe06f9fe0a03U,
  0x208fef5040c1003U, 0xfe0203fd0007fdffU, 0x8c507010406f7fdU, 0xeaebef01fc01040dU,
  0x400fff8ff0e1505U, 0xb041ffdfafef90dU, 0xadb00f70507f400U, 0xfde0fbf7f7fb0107U,
  0xfdfb030303001507U, 0xff11fa02f2ff00U, 0xf50207dd05fbf4f8U, 0xfe1bc822f225f720U,
  0x903fd03e7eed920U, 0xfce5010d08f2300fU, 0xf815f7dd09f6f2f0U, 0xff17b82ce327f42cU,
  0xfb03f308ddf2df33U, 0x7dbff130cf73c08U, 0x100cfafc0404fc04U, 0xf300e30df312fd12U,
  0xf208f905f6fcfd0fU, 0xfbeff90c060c19fdU, 0xf2fa0ed609fffe06U, 0x616b5330e33f520U,
  0x209f5dddaf3d22fU, 0xf6db01010401320bU, 0xee10ffbc07f7e9f5U, 0x823813efa4bf23cU,
  0x207f1f5c2f0ca4cU, 0xbbf04fefaee4b15U, 0xe0efbe604fbf2fdU, 0xfd0fc713f727ff23U,
  0xf809fa0beafdf81cU, 0x4e2ff03fafa2708U, 0x9020fe7fa040910U, 0xfb04d7221416fc13U,
  0xf406f9d3f1fde822U, 0xefe6f8f60c1812faU, 0xf7020ad7f8fcf708U, 0x31ca9320c31f920U,
  0xfcffede7d700dd31U, 0x3d103f2faf8200cU, 0x202fbec01faeff6U, 0x412d80fff1dfc14U,
  0xfefef807ecf8ff11U, 0x5e302f2f4f21702U, 0x20c01e808a1f3edU, 0x12fef017f20cfcf0U,
  0xdf9f5e19e0e1f1bU, 0x7f6e70dff0116d6U, 0xec0ef50306ab0afcU, 0x10f00c0b0716f5e8U,
  0xfbffdbf2affb1f04U, 0x619f115ff161edaU, 0xef0cfa120af3100eU, 0x3fe0e0f1113f00cU,
  0xf003ee13f3f710f8U, 0x71f0f17070c14fdU, 0x15030de70fa700efU, 0xbfaed21fd0ffde8U,
  0x29f7f6ef81193326U, 0x1df2e908ecf011e4U, 0x80efb051cb60deaU, 0x500091c0616f3e6U,
  0xdf5d9e890fa2d21U, 0x151cd20df80524eeU, 0xfe18040613eefe00U, 0xfe020520101bf6f6U,
  0xfc0fee06dffe1f0dU, 0xf819ea17010d1f12U, 0x10fe11fa0de9f4f5U, 0xf1f0091bf80311e9U,
  0xef8fbfab31f201eU, 0x12fd0bffe8eb0207U, 0x19070ff51fd8f5f5U, 0xf2fb0e2b010b05e6U,
  0xfae8e79f131d22U, 0x1008f5f8f0f50e03U, 0x71313fc0ff5f705U, 0xf906052c0010fbeeU,
  0x50ce9eee4091824U, 0x506f7faf6f11102U, 0xfe0417fbe40c0c0cU, 0xb0814190a03e903U,
  0xea2e13cc02e40effU, 0xcc06182d1fe80c16U, 0xf3fbfad9190f27f6U, 0xe8e3100c4efee716U,
  0x3b9bc4032e1503edU, 0x517e14328f3fc00U, 0xbf9f000ee0a1b0bU, 0x2411da1409ee0ae9U,
  0xf75321e8e0e205f3U, 0xe5e40013d310f904U, 0x906fb0ae7fd02f4U, 0xbfe0e0aebfefffeU,
  0xea401ad9e005f10aU, 0xe003281b0ef4fd04U, 0xe809fbb610ec27c2U, 0xdeca240e3afeff34U,
  0x2cb889ef192e03f1U, 0x2004d2343ffbfbfaU, 0xcf7e5f0d510140cU, 0x2b0ddefefee5fbf1U,
  0xf7451be4def6ffe9U, 0xf6e4e508d904f801U, 0x1109e706f506fb07U, 0xfffe12fdedfbedf4U,
  0xef1825f2f2f80112U, 0xd302320ff4f2fb06U, 0xeb0f02df0ee503dbU, 0xce0027070ffa013dU,
  0x1dcc81f0fc15080eU, 0x6fcfd043200ff06U, 0x4e80205da211e0bU, 0x1c1f050600fef7fcU,
  0x32529fa07dff9f2U, 0xe0ffe80f04060911U, 0x224ecf8e0f101e9U, 0xef1df509fde103efU,
  0xe506d611eafd1b1dU, 0xfd8f1fff013f0e8U, 0x12e009f5f8fa05fbU, 0xf902f11924b60f11U,
  0xed07f7d3f501eb2aU, 0xe6a8fd03f5f9b7fbU, 0x51010effcfcf516U, 0xbd70c0f27d20e0fU,
  0x9061904eb14ecffU, 0x5c1f503e5fabf04U, 0x129eb0afe0608edU, 0xed19f71d04d3fa01U,
  0xed02f220f3004020U, 0x2ac5fa05fc10e50bU, 0xab81ffb251ef9d0U, 0x3eff02a25890a1aU,
  0xcf21dc909f0d60fU, 0xc49d030b14eea21fU, 0xf62e1fe61311f315U, 0xddd0a2802b8fb12U,
  0x11f72815f5f7e105U, 0x5b0fafe0df5c215U, 0x525f613ff020015U, 0xfa07fd0c08d307f7U,
  0xfe230e17f900350bU, 0x24e21108f215ea00U, 0x118152072b1ae7eeU, 0xec1f02103a91102U,
  0x100c30b003f7e204U, 0xc8c61c0810eebf16U, 0xee253bee00140120U, 0x1bd7fa1df0cdfd03U,
  0x301210cf7fce215U, 0x5c801ff1508df1aU, 0xf0fefffef2170400U, 0x10f409070cf302fdU,
  0x8f609e80ae7f3ffU, 0xeafec307ff08fd07U, 0xb0fec01eff6fff2U, 0x1f0f0ffffa001aecU,
  0xf50bfcf7f9fdfc01U, 0xd9fec0fbf008fdfdU, 0xf0d13f9fde50b09U, 0xeb01fd0b05ff14f8U,
  0xce11fdf9f4fff30fU, 0xe6fb1d09060f05f1U, 0xe8e902f0fd0ffae6U, 0xddf8f40efdfff412U,
  0x26fff8f810ec05fbU, 0xef6e30411f6020aU, 0xbedee2e4ed3aeed9U, 0x35fffc0e0502ec0aU,
  0x4be3f9f52ddffff6U, 0x2afc810617f10428U, 0xedf9fa02e028ff03U, 0x2cfcff040b05f7f9U,
  0x8fffffa14f2fcfaU, 0xe702c409fb030315U, 0x1ef80b18ffebfff9U, 0xe80304f6fa0409f7U,
  0xeaff040ee82515f9U, 0xee0931f8fef801faU, 0x22f609121bedf1daU, 0xcafcf8eef30102ffU,
  0x9f20503fa220af4U, 0xd0512f209ea00edU, 0x10efe0511fdf5fcU, 0xe5fff5f8f9050003U,
  0xf3fc060d02020306U, 0x2fffffa0a030701U, 0xb3d6fff81f25d6c3U, 0x13f0110aec30011aU,
  0x28e144241bb7f5e9U, 0x1424dfbc350a271aU, 0xafe2bb193538af91U, 0x33041d24d64df219U,
  0x54be505a3292fdedU, 0x1e40cfcf51e44240U, 0xd7daf3240f16e1cfU, 0x1f04081ff41df912U,
  0x8e723271fd7cd24U, 0xf422f0fa270a1a2eU, 0xe6f3f3e21211d8afU, 0xf7ecfe13f838091aU,
  0xfee31d5eeaedfe11U, 0x1a140ecb3ef82616U, 0xdb068f183d31b9a8U, 0xfaf91b35ed54f22aU,
  0x6299497f24b924f1U, 0x2c2bd8d13cd92e4bU, 0x10ebd83d092ae3c6U, 0xe3e61821001302f3U,
  0xfec931291cedf203U, 0xf32bf3f401fc0935U, 0x340f02feedf0f1feU, 0xf5eefc1f030f2f0dU,
  0xd1f4f716de23fb32U, 0xf3fa39e9051f04f5U, 0x371de81fde06d8efU, 0x19e5142200ff240cU,
  0x1bd60f14f2221d15U, 0x200a1d01fd0bf3f3U, 0x4a10ed2fd4240505U, 0xf3de110c09f623deU,
  0xe6ec1aff13111500U, 0xff0e1610eb0ef607U, 0xf10504e20af5e205U, 0xfd02e7f7e0150e14U,
  0xc090715e404fd1dU, 0xefb0dbd10e91e12U, 0xeef30a1aef01a1f0U, 0x2d41cb2a9ed0bdcU,
  0xf91ce512fb09ebU, 0x52f1ebb04e6ede8U, 0xe9c50f30080ccbf7U, 0x3d946b7d9e705dcU,
  0xfde618e7360103c3U, 0xfc5023c9ff00d2f2U, 0xf404f8ddf5e7d40aU, 0xf31dd205d1290219U,
  0xcedfe22d3edf021U, 0x6e40cb20ceb330cU, 0xf703d336dffc81e7U, 0xf0d02b8694e911c9U,
  0x9ce240822f515c5U, 0x144e18a7ffede8ebU, 0xfbd5f44dfa11c2f2U, 0xb5668dbfcb079dU,
  0xdde1ee94df007a8U, 0xef671cd30216b4faU, 0xf906d7eff5eef114U, 0xfc1aed0fde20f90dU,
  0x4fbf718e6f9f314U, 0xfdf702bdeef811fdU, 0x1f8c21af600b3f5U, 0xffe623b9c30809ddU,
  0x10ee0105200125d9U, 0x162e0bb8e600effcU, 0x13ede827fa0ae00aU, 0xffce3bbadfe20bc2U,
  0x5f90cf21b0404dcU, 0xec2911f3fd19dff1U, 0xded4fbe32b0afd0bU, 0xff0c031a3906de30U,
  0x51a523809d22be4U, 0xfbdeda0fea1df919U, 0xf7fa02ca1ff8f0e9U, 0x811c30c1703fc1bU,
  0xfd255009e5ec17b8U, 0xfdbdf804c803010aU, 0x17f6e5c4f0f6dccbU, 0x2f1faeedcf725ecU,
  0x33dfee20f5d9U, 0xcc25e8e700f7f9U, 0xe2be05c1220713fdU, 0x331e23128e7e434U,
  0xfb05342809c00110U, 0xf5d9e723ff11fa12U, 0xefe9f0ad0ef103f0U, 0xf42e893103f2113aU,
  0xa144c03bf012106U, 0x981f2eac4df04f9U, 0x7fce0c3dfe7ccc7U, 0x40bdef8aee5360aU,
  0xfe0232e0d83423e2U, 0x1bba10dfd7e3eaf3U, 0xf2e20de51d0616f7U, 0x21ae91c12faea2fU,
  0xe9e0181101d5ea27U, 0xeceae40c1b04040fU, 0xf303fcc711e010f0U, 0xed27ac37e8060b40U,
  0xaf12614c403003cU, 0x18bdf3edd8d9070dU, 0x5fcf6c2efded0baU, 0x508ce09b2e83201U,
  0xdfe19f0d9212bfbU, 0x22bd07ddd3def4eaU, 0xfee321d014151811U, 0xfae2fd052df7e7fbU,
  0xf2dcff001ed413f6U, 0xecf4fa1c0de2fa17U, 0x1cca4cd22c261d02U, 0xf1e4f11b3afad9feU,
  0xf9d3100627ab03ecU, 0xd6f8f22811c60526U, 0x19df2aea1f171a06U, 0xfdedf10a26fef300U,
  0x2f010ed15d311f3U, 0xebf9f9190cf5fd0aU, 0xdf19bdd308021b18U, 0x302ea0f3a00b9f3U,
  0x4e4f52a0ce20ce2U, 0x12eaef2112ee0c07U, 0xe6f9bed9fb23202bU, 0xce8da1349fb92d2U,
  0x9e9f52d1cc623b9U, 0x8e8e2370506fc16U, 0xeffec203f41aff32U, 0xfcdbf8f31aebd9d7U,
  0x108080c1cff37bfU, 0x1202e219fb1feefdU, 0xe6fefefcdec7d5f4U, 0xfb0806f7bdf513f2U,
  0x927e9e2b84afa0fU, 0x18f412bce1f4fbe1U, 0xf9eef307b3b9980aU, 0xfe5f6c681dc28d3U,
  0xfe38cbddae4823f0U, 0x2eeb0ea1da0ce7abU, 0x1f220d1d5ba06U, 0xffe300dfb2ec3fd5U,
  0xf125ede9e82d2ae9U, 0x22fbfac9fd0ff1b5U, 0xe52de0ce29d91105U, 0xf81ae724ff35083bU,
  0xe1fe120bbdf4e431U, 0xdbecf41f15072f0cU, 0xf11bd6f929cc0f0aU, 0xdeed17270c0e2e20U,
  0xd50729e4dc07eb1fU, 0xba12cb17fef60df1U, 0xf8e2f23017fe0709U, 0xf5e1250f0cf31dfaU,
  0x4ee21f10625ee05U, 0xea240afff8daf401U, 0xf423e7e111f6ff0eU, 0xfe140527073c103eU,
  0xc8f919fae2ecee1dU, 0xc511ef1116283101U, 0x821e907010b0d13U, 0xd7d723271e2a2921U,
  0xac032ddb1008da0fU, 0x8130b01c0a14250cU, 0x8d40f36f9180803U, 0xfdd7150712fd11f2U,
  0xf0f41aef111de602U, 0xde25051005f9fe13U, 0xee0afcfb0419fd0cU, 0x14ee15000024071eU,
  0xfbed190810daf3f4U, 0xe114f2f60f101206U, 0x40c0113012ef1f4U, 0xf2d522090d200619U,
  0xe6fa1c021ff4e5ebU, 0xe430e5fcff09151fU, 0x16e60a1ff21afbf4U, 0xe6e20408100df2ffU,
  0x4ef11080cf7eeedU, 0xfa180611f0f5111dU, 0xa717ad13e9f6fb0eU, 0x60f21cdd2f10effU,
  0x1116f80f032d1ef1U, 0x3514fdd1ea04e0f0U, 0xbf08a428d1ebed17U, 0x80935aad6defceeU,
  0x8fcf204133324d4U, 0x3526f4b0e1f0bebfU, 0xe8f2d517f8fcf2efU, 0x4fb27c7dff005eaU,
  0xfe07fd01141c20dbU, 0xc18ecdbed01ced9U, 0x415e71c0009072eU, 0x7e726b303c20af0U,
  0xb0715f22d3638edU, 0x111a070feffb97f7U, 0x20e41ffd27071552U, 0x8c41dab1caa12fbU,
  0x7eb1eeb26001df0U, 0xe21a150cf0fb81efU, 0xbe425de25052220U, 0xffccf4e410e01102U,
  0x2ef121601ee0910U, 0xe10602000406d803U, 0x26fa27051418f02cU, 0xfa9f06ec1bce16f2U,
  0xeee128f42ee80ee2U, 0xd90ef8211b17d503U, 0x2bea60eb201f044eU, 0xf393e8f52bc506fbU,
  0xeec338fa2ccacf15U, 0xae0ef4322208e00bU, 0xffd34d6150e0825U, 0xe6d3de030cf60d11U,
  0xf8db12140ddde81dU, 0xe8f8f1090dfaff07U, 0x92fa00fdee09faf6U, 0x24f3020000fdfe0dU,
  0x110e00fa010bfaffU, 0xe05c70cf44804f2U, 0x12f9f30cff000100U, 0x6f8fefcfafffd0dU,
  0x5f7f90d040e04faU, 0x1200fa04e50303U, 0x5ef1fc080b030502U, 0xb60908eaf7f9fbfaU,
  0xf0ed08060f0900fbU, 0xee052ef600bffaf6U, 0x81f800fcda0afbe8U, 0x37ebfdfd0502fd16U,
  0x17140be60902fbf6U, 0x1df9cc0cfd62fbf0U, 0x2fcf905da05fb22U, 0x23f6fd050405f00aU,
  0xcf2f203ff0600f8U, 0xc04f3fdfce703fcU, 0x75faffeb04f50201U, 0xc00d02effc04f4f9U,
  0xdff8ff14fe06f312U, 0xd8fb27f6fdb108e9U, 0xb30201f8f00205faU, 0x14f3fbf601fffa12U,
  0xa1315f804f5fff5U, 0x11f9f100fc51f6f0U, 0xf3ff01f1ec000214U, 0xcfd0002fa02f806U,
  0xcf7010600f3fdf5U, 0xfff8f1fafbfb00f8U, 0x4a0202e8fa02070bU, 0xe510ff02fa0cf8fbU,
  0xe6faf811fd00f80eU, 0xe3fa06fbfabc08ecU, 0xee53dc6dbc8b5bcU, 0xf0270335b625cae3U,
  0x50e2b7fbd1540917U, 0xf1df3fc616d02ff8U, 0xe0a965a915e6f1d4U, 0x1cd1ef2505fb30feU,
  0xdefa0ff4c458a23eU, 0x5fa460ad521edf1U, 0xef10f25a09212144U, 0x8cb261431e7fae0U,
  0xf4f14d1c17f514dcU, 0xfc1be10ee502d41cU, 0xe3bb59d7c1d8fabeU, 0x44f1fd24ea143a07U,
  0x28f6d6fecd68b835U, 0xfbde2afce7f513edU, 0xde06eb7e17243c17U, 0xf3b5350032f63509U,
  0xb6fa451409ee0cdcU, 0x1247f133912adcedU, 0xf430ac4af3143525U, 0x3fbfbf40bdfd9d0U,
  0xfd070ae71fec2dc9U, 0xed20c625f6f5ff0cU, 0xf9fbf6fe0d141af8U, 0x26e50006340e310cU,
  0xdef51711fa1dc20aU, 0x16faf01be4fe00f4U, 0x183081693c2f3447U, 0xb9e905fd2df5db0eU,
  0xe6f22c0f208646c3U, 0x169c22a0a14ed16U, 0x2211000cebdddffdU, 0xe730c807f409ee02U,
  0x1b22d3bdeb070c0aU, 0xe9a4e600fdd312fbU, 0xee17b3f61d1000dfU, 0x4435f10df819d6ebU,
  0x25e4e814faf11d09U, 0x1f02ce0af1e4251aU, 0x2be45af5f0b70b29U, 0xd6ddeeef00d73bfcU,
  0xb448fcdad92de523U, 0xc1da3e04eb2bded6U, 0xf003e9f7f7070305U, 0xfe0ee6fc04f7ecU,
  0x17f00cff08e80be1U, 0x170904f7fff6f4ecU, 0xe506a6fc262df6dcU, 0x3934f01a071eb8ffU,
  0x5abff90538d82df1U, 0x4101b3f8fee12031U, 0x29e253f9e8d1101dU, 0xe6d4fcf0f5d83e0dU,
  0x8e5b0de7d52ed82aU, 0x81ee3afde922e3ffU, 0xf902f2fa0c07fd0fU, 0xfaf813ed06fee5fbU,
  0x23e2081311e205dcU, 0x2212fb0211edf2f4U, 0xf5f8d10d2416efe6U, 0x70607030007ddf7U,
  0x3ed2f5f227fa19e8U, 0x3105d4ef04eafd0bU, 0x7fa1fffe9f2fd19U, 0xf9de08edf7fa2207U,
  0xa3301b10ec27ec18U, 0xb90a2b03fa21f90eU, 0xf10207f20bedf909U, 0xe9020700f8f90104U,
  0x10ff0404fdf7f902U, 0x1900fc0506f900e8U, 0xd3f5fe10f9f614ebU, 0xf7060e13f9fe0806U,
  0x52fcf8020404d1f9U, 0x205effffe0e0804U, 0xd5f2e9120a1111daU, 0xe51e0914f3060e13U,
  0x511601fc06fcde10U, 0xee0afff204dc0e1dU, 0xf40fb9050a2206e1U, 0xea2612faf419fc02U,
  0x1d02fe1e14e40cfbU, 0xf00cf7faf7e30418U, 0xfdfc27fcde2d0aU, 0xdc010df82100ef03U,
  0x1ff90530ea45fb01U, 0xde15161b03aaf905U, 0x28cef62e25ce1feaU, 0x810811fb1bfedbf6U,
  0x22fe2317eb3910fdU, 0xec131710fe91e7cfU, 0x14f9d1f92af1f9ffU, 0xa32804f40906eaf0U,
  0x1012122a0bf913ffU, 0xfb05f406f7bbebe5U, 0xef8dc07f4f91107U, 0x9f306e90df4cffeU,
  0x18d1f316f61d27f8U, 0xf508081809a0f402U, 0x16dcf2f507dc23e9U, 0xbcf1f8cb27f2d1f5U,
  0xddb0a21ea161103U, 0xf600081d0094e0dfU, 0xee5f8e81ad6f7f2U, 0xa5fefad4fce9e8ecU,
  0xf6fa091200ea0ae7U, 0xdfeee10ead1e9d4U, 0xbf4ee2ef502eae9U, 0xd30902fbe7f90df5U,
  0xfd12110c00fa2123U, 0xe114e7da10f9f801U, 0xd804e70008f0e2e3U, 0xfb1bf10ef219ffd9U,
  0xe9000116fbf81c13U, 0xf3f7f8ec15f81108U, 0xeff80dfbfbffea09U, 0x19fff100fa18fcdcU,
  0xe5ecfe0c1adcef09U, 0xe1f80a0010121400U, 0xb2cb3016ed04e1b8U, 0x3825d92e0bf3ed17U,
  0x593516f6efdb2525U, 0x2ce9fdff1cd91027U, 0xd3cc1a18e017d9c5U, 0x7f0efc1612ffc4eaU,
  0x351e12fe0c013a0bU, 0x1dedd6f421d6fc1cU, 0x2f70811f307eff5U, 0x230afee6090ad6d4U,
  0xd213f5111dea0a05U, 0xdd01ff0501f5ff08U, 0xdcca53f6d707f88cU, 0x4c1ce52e0503e32eU,
  0x482609df02e00e09U, 0x2fe407fe1bda0e22U, 0xeceb2611b81ffeabU, 0x4e0b07ef05fdcf0aU,
  0x716f4f7170e24f4U, 0x1903d4f32ac70414U, 0x71ce407eb1008eeU, 0xef1afdd901ffd9fcU,
  0xcb0ff0260bf80710U, 0xf601f0fa11f20c0dU, 0xfaf9050b030a100eU, 0xf3ee09011afaf501U,
  0xfcf10aff0efff9f8U, 0x202f218f2fcfa0cU, 0x80bf4fadfd6ed0cU, 0x1505f2e7cee61be2U,
  0x419dbf5dd1c12fdU, 0x9e60ce4e10de1cfU, 0x1fefdf20c081101U, 0xfb02f50d2304f905U,
  0xf7faf5030ce8fffeU, 0xfef8f61716fc050bU, 0xf2f6fd0209100808U, 0xf8e80a050e00ec02U,
  0xe5110a09f4f5f0U, 0x607f519fff1000fU, 0x122dfece1aee403U, 0x1309f5d481d62ccfU,
  0x81dc4fbc4241a00U, 0x1cc70abdad0ed6b0U, 0xfaf8f4ef0d0b1606U, 0xf907fa0914fdfcfbU,
  0xf6f4f1fa0edef8f9U, 0xfffdfc0a0bfafe03U, 0xfafc02fc060d01f4U, 0xfdf307040506ef08U,
  0x1e4091106f4f6fcU, 0x106fb0e0ff5000aU, 0x30deff1f5c6f2f7U, 0xd03fdeac2e922e3U,
  0x1212e30dde1f0311U, 0xfe509e5bf0decd8U, 0xfbfb050b0e0a01U, 0xf701000705fafef9U,
  0xf9eafdff0fe9f5fcU, 0xfb06fd040afb0102U, 0xddf0fc032522fdebU, 0xfd1df8f4f524e716U,
  0x14c906391ad802e6U, 0x1311eafaf5d32021U, 0xff21d5020afb16f5U, 0xfffdeb05f9fcfaf4U,
  0xe4fbeceef7090201U, 0xbf6f906ccfe0cfeU, 0x2b082beaa5a4072dU, 0x29e7f9d9f8cd47d7U,
  0xf43cbed0b3340325U, 0xfbd10df6d530c181U, 0xe6e8ffea29140cebU, 0xed1febe40b21c707U,
  0x1dbdfb351db70ed1U, 0x70ddd1004c4271bU, 0xf91ab8fb411d18edU, 0xe520f30a182fc1ffU,
  0xf2c4eb2b25d817e4U, 0x1e0cda1fd2e6311eU, 0x210536eaa9830429U, 0x33cbece7cdb350f9U,
  0xe265ba9f8857fb45U, 0xe9cc2ed4974bc8c6U, 0xfcf5f6e41df20ef9U, 0xf60bf6e80811da02U,
  0x15daf02b05d903e7U, 0xfe07e6f8edd80df4U, 0xff0bd0f5431205edU, 0xe61ffe040a1fca00U,
  0x2c1ff1a2bd215e3U, 0x1815cffeefe41c06U, 0xf9fc20f7e0c1fa18U, 0x19c9f20fd5d64705U,
  0xe85bfaadbc4af72cU, 0xebe220dab74be1fcU, 0xa01171102190f0fU, 0xfd0f071c24d71ef7U,
  0xf7de222622e8ca14U, 0xf4e4f8f5e9dbe81fU, 0x220fb22124b0902U, 0xe539052a21f6080bU,
  0x3be1b3e35e9e80aU, 0x1ae5142204b9fd51U, 0xf706fe1809390efdU, 0xfa2ff92c20fcd908U,
  0x12c4e1211df2d605U, 0x6e62f1511dc0f45U, 0xe026ceecebeaf416U, 0xf64402fad8df01ffU,
  0xfae3f2fbf0fbc3f1U, 0xf3e2f3e9f306e1ecU, 0xe1428118e205effaU, 0xe2552cf6dcdaf41cU,
  0xf3d4f0100f23ceb0U, 0x35e019ecfc07e801U, 0x20eb60fd601f8ebU, 0xe61e1d16eee8f2eaU,
  0x11e3cdf5f141c0d2U, 0x10e728ecef24e609U, 0x61211e4e9e7f718U, 0xa181600f3de1301U,
  0xfdfbdbcbda05f614U, 0xfcece329041ce7dfU, 0xfff936c401c01517U, 0x190928dc0abc160fU,
  0xd8f2e693cd33fe1aU, 0x7cedc2bfb1ac0c7U, 0xcdc50d3edcf12f6U, 0x1fdc18050fc810e4U,
  0xe828f2a9d441f828U, 0xf1f3ce17de39dab1U, 0xf0f5e3f5fd0103f9U, 0xf1ef08e709d5fff3U,
  0x3cc04150c10ebf1U, 0xeceafbd5010ad3f5U, 0xf21abde6f9f403f2U, 0x61be4e80ce20be5U,
  0x1cdf12407fad505U, 0xfac7e3f5020bd5e7U, 0xfce9e3e50f1103f3U, 0x14cff6030705f9U,
  0xfde8fc0e12ded011U, 0xddc6eafafb0a0109U, 0xeffdfac5070ff3f4U, 0xfdd0e9f60dc7fd0cU,
  0x12bd00180ff6e102U, 0xfad6ebfa18eebf05U, 0xda1ac2b6f914000cU, 0x19d6acf31ab000f0U,
  0x1781010514f0e2fcU, 0xf289e907f5ea9906U, 0xe9daefc40d150af6U, 0x15dba3e614df00e4U,
  0x4c706f715e1d300U, 0xe3aded04ea05de12U, 0x111109dd110ffbf1U, 0xedebe110fee5f71bU,
  0x14d9f81d0907f204U, 0xedcf8011fe8f00fU, 0xec02ecc8f817f304U, 0x4c3b7f5fdbf0205U,
  0x18c3140e0e04f30eU, 0x1b7e50316edc50fU, 0xe7e106effd0dfc07U, 0x9cbcfe605d812f3U,
  0x4e50f0120fcf4faU, 0xfee4ee0af704d40aU, 0xee24f7fc0602f40dU, 0xfff70beef30ff109U,
  0xdf20c11f40dfbf5U, 0x1208f6ea01db0e05U, 0xf828be0cfbe9c701U, 0xe7ff14e3b5100200U,
  0xd03f513df2116feU, 0x1a1aecb8ded014e7U, 0xe12d80f07e3d200U, 0xea130ae9c3081b0dU,
  0xfd0dfc06ee0d1303U, 0x1610e2e2eef60addU, 0xdf30ed08effaeefaU, 0x12051bf0e316f613U,
  0x1b050b1af909f1ffU, 0x180ff7da04f215f9U, 0xde46841acdd8bbebU, 0xf61f1bda8831fc0bU,
  0x14faea19e119170aU, 0x2738ef81e1f32aceU, 0xb26971eecd6cfd5U, 0x137f7d49f220e1aU,
  0xf812f316ea0f1ffcU, 0x1f17ffd3e6121ccaU, 0xef0b0c12fcf7f8e2U, 0x150a0eede80ffd14U,
  0x60a071b040ded11U, 0xfd1308e20b170504U, 0xf71bd419f8e9d6d3U, 0x91a0be5cd31052bU,
  0x1005fc2df11d0514U, 0x32000aceb1218e7U, 0x1212d516fdebf0dcU, 0x428f6e7ce23181dU,
  0xfa1f0321f3121308U, 0x5110ad3e2171be3U, 0x4e913223614cbddU, 0x10460cf0be180227U,
  0x32fd11dd1ed0f1c0U, 0x1e261aae06f8fa03U, 0xc640a2d9f222f9d8U, 0x4d0dcb3ee33bb101U,
  0xfcecc21bf8f00c5dU, 0x1dc7ce644d247f3fU, 0x11f82729e802153eU, 0xd9a522c41ce140faU,
  0xb620d9ea0e4eee29U, 0xcafab801fa25f7e8U, 0x30887153d6f7c5a3U, 0xd31f48cdc5d255f5U,
  0x300c19aa0f1ececaU, 0xea522d86eae8cbddU, 0xf91907fa321ecda2U, 0x74ba722c151d339U,
  0x1eea4ad8fb81d5ddU, 0x20f427eaf9f83a0dU, 0x239bbe9131b00ecU, 0x29efe2450d29d200U,
  0xe2efd921e7f71053U, 0xeddedc1c080a3e3cU, 0xbbe091ab9e115e2U, 0xfaeb48f506eaf2e6U,
  0xebe7cc38f42c1415U, 0xfd4204f618fd01faU, 0x6cb592117f3eba3U, 0xbe1a0cebefdf662fU,
  0x13f340bb08f4b39bU, 0x72225f4cee9d9b8U, 0xf51005dd120802deU, 0xe22dc39fe18fb23U,
  0x39e231eaf3d6f0e6U, 0x1ea05fafad3ff17U, 0xe27af05180c08faU, 0xfeb1807edfccdfbU,
  0x29c0f711f9f9f222U, 0xfbec25f419e1f129U, 0x23f0f4000011cfc0U, 0x10e53be2e106eee7U,
  0xac2b4fe040fde22U, 0xfc0b08bcfeff0715U, 0xf8c43c0fff15cae4U, 0xf81a08e9cb0520f3U,
  0xfb30d2c6fe19b901U, 0xeafceef0d9530601U, 0xf61897f304081401U, 0x33e61725ecf3b4e4U,
  0x38aed418e5080558U, 0x17e124fb11c60434U, 0x11eef4ccfffceabcU, 0x8f244cbe012cbdbU,
  0xf6b781fe0626d140U, 0xf10d00d214f001fcU, 0xefc44a18fa0bf1c7U, 0xc22032bac31618f2U,
  0xc430c8c40b1dab0eU, 0xe51fc1f2ec5206f3U, 0xf413b2f9ef0c0cfaU, 0x31f61d1dfc13c1edU,
  0x23cce30ee802f843U, 0xcfe150405d1232cU, 0x2519faf20af0f9c2U, 0xf1042be105f8ddf1U,
  0xebc1b41af821f226U, 0xfd11fe0d01d60d05U, 0xde35825140a0befU, 0xbd051eea03fa18cfU,
  0xde22e2e90320e119U, 0xe612d508f03d0507U, 0xfed2fbfaf1e806f8U, 0xfcf5e9e9d6dd13e5U,
  0x2019ccf4e71c1529U, 0x16f101f69fdcd7edU, 0xfcd71dcc0dcf1101U, 0x23dca7d8e3d058d7U,
  0x202381d4d4210224U, 0x19ca06daa0c7cbccU, 0xf90712e90cf20f06U, 0xe04e3f407f42ef3U,
  0xb11cef0ee0a010dU, 0x3e7fdf0efcefadbU, 0xa0de3ee12060914U, 0xfedef900f013faU,
  0xf9e8021f12dffb11U, 0xfde2f601dd0ffaf5U, 0x10adbf31c171c13U, 0x418e8110ce618fbU,
  0xfcdbf7271ce3f117U, 0x1ddfa03fdfbeb12U, 0xff14e8040c120b07U, 0x220081411f5f0feU,
  0xad4f90d0cecdc06U, 0xee000afc15f8f818U, 0xfb13f1f40600f708U, 0xfa130001f906f915U,
  0xdee60dff10df04fbU, 0xfafb06f00a3705faU, 0xff1fdf00f706eff1U, 0xea200f0feefae319U,
  0xdde11b0c13e206f7U, 0xfdfe07ff183600ffU, 0xfe0cfc01f00af2f1U, 0xef0f1808faf4e908U,
  0xf5f313ef07f6f5f8U, 0xfc02080a0e18f7f8U, 0x31dd13f7f7fcff1bU, 0xeddeffffe80612dcU,
  0xe912d0dd0010ecf3U, 0xebfff8eb28e40ae5U, 0xf201f2eef008d00eU, 0xbdd2dffdbfebbaeU,
  0xeffc91f0fc50f244U, 0x7de12c95af52302U, 0xc722d8c21506b8e1U, 0x180a2ee7f0f5ba0eU,
  0x4f5bb1a0726ff60U, 0x250dfed77ff4fb12U, 0x23e91bffdd190637U, 0xd6a733f9e80cf3b8U,
  0xfbefe4da2302bbffU, 0xef10fafc3cfc0ef9U, 0xe81cd7edde13d804U, 0x2be41f3cefc8ea6U,
  0x16d987161a46c349U, 0xa06c4480607f9U, 0xbc4cb0ce1906c8dbU, 0x6ea31e0e404c907U,
  0x17e9c22d0c2c324fU, 0x1702f8d36afcfa0fU, 0x17f326fef0160a19U, 0xcfbb24e4f005ecf4U,
  0xf7f0f3cf1325d40aU, 0x8ed0033f402e5U, 0xfb0ff4e3ef04ef08U, 0xeeb225d8e007c4d1U,
  0x1edb206130edd43U, 0xf705e9e4280201f5U, 0xd90ed4e716f6dbf6U, 0x1fc008cbf0f5e4faU,
  0x1802d0090c010a1cU, 0x108f9ef2314effeU, 0xe8f10f1ced1df924U, 0x1a26d2e406ec100bU,
  0xf40b03ee1cffdf35U, 0xdeefef62cf9db24U, 0xebf30123d215f715U, 0x417d7a9e9ea04fbU,
  0xf20cfc0a3a0ce626U, 0x1e2f9e1140bd11cU, 0xe08ee13d6100c02U, 0xfcf8e5b8fefcf1e3U,
  0xf8f6e71920f4f3f2U, 0xf2f0f605f70ef2f2U, 0xc7f01232e507fe25U, 0x1535b8c6ffd80e0dU,
  0xa1715d81433d13aU, 0x31dc02d72eeeea09U, 0xece9095ac921ed13U, 0xe1dc981f2d0fae9U,
  0x10270d0d3b25ea0fU, 0x18eb05dd1202c00dU, 0xee30639e620f518U, 0xf9f4d99a0cf5f0f0U,
  0xfd05fb1031f502efU, 0xe0fbee080012e60bU, 0xf5f70022eeea06fcU, 0xdb2acacfe7f4fc12U,
  0x1d1b19dff941f701U, 0x27f504d505f4edf3U, 0x5f6d43afbfd0aeeU, 0xf526d09ff1e2020bU,
  0x1a110506fb4c1be1U, 0x1f00fedb16fbe802U, 0x12fde62a03040b0cU, 0xe304e6c40fec0f08U,
  0xa020a18150d17e3U, 0xf1fff1190808f111U, 0x21adff4d1cef519U, 0xa02efe2cfeefed5U,
  0x10dcffac9121303U, 0x11e500e8cf02f9e0U, 0x204fbeb07121c03U, 0xfa04ed0d27fb010aU,
  0xfafcddfa11e50201U, 0xf7ebef221706ffffU, 0x9000cfa09140e15U, 0xf4ef02071804f207U,
  0x8e40a0010efe303U, 0xf506f9080e02fc0eU, 0xf420abebe5a7d510U, 0x519e5d58aff0ac1U,
  0x914a415aa2629fdU, 0x2fd706a281f6fac1U, 0xf3fce0e80b0a0ff7U, 0x415e30c0c010d01U,
  0xf900dbf30ced02f4U, 0x4ee000c04fdfdf9U, 0xf3f407fe000c0705U, 0xfdeefb0603fcf506U,
  0x3effff708f4e406U, 0xfd030604fcf8fe0dU, 0x506c0e4fac9e504U, 0xff0ceeeabc050dd5U,
  0x1609d128cd210a07U, 0x12df0ebd95fffad6U, 0xfcf0e5f3180e11e6U, 0xbf8030c0509faU,
  0xf5f8f80a0ef1faeeU, 0xfe0608080305f6fdU, 0xf3060801080904f8U, 0xfef1fffd06fef609U,
  0xef050107ebed02U, 0xfd040d03fe02fc10U, 0x532047ce09c31b2eU, 0x9def1301f3ef3cfcU,
  0x9443ea0aa843da22U, 0x81e215f8e224e9d2U, 0x94f4c7fa1bd8fde5U, 0x31e282310171431U,
  0x19d60bf523e93aedU, 0x721ad0241f911e0U, 0xe3deda26df35ebfcU, 0x3ef20a200d09e7efU,
  0x2feb12e82c0b0ce5U, 0x171ffd0900080c19U, 0xad00ef0401fa0515U, 0xf1e8290b11fc230eU,
  0xebfe07f518f41bd1U, 0xd228cb0a2b1f01e0U, 0xbfb5ba54e55fbdbeU, 0x7412211bef0cc3f8U,
  0x78b719cf55ee59bcU, 0x633be0e41af41044U, 0x46e82a0ed316dbedU, 0xf7e8f7d4dd0bf9f5U,
  0xdc100308f3460df2U, 0xe30247eced030718U, 0xb8ded84cf754d1e1U, 0x23ec12f607f3c000U,
  0x4cc322ca4aeb4abdU, 0x2e33e3eb24e9e321U, 0x6cd4350de409bbd8U, 0xf4ee05c5d512e6deU,
  0xfded03fbe92f04f3U, 0x1af846c5ebde071eU, 0x3bfa30da25bc0102U, 0xb301f7ddea152bf8U,
  0xb212fd17dc0c1711U, 0xc7ec2ef7ff0310e9U, 0x7c12125dd0af6efU, 0xfae2060005d93a0aU,
  0xe0929e20c05fc08U, 0xfd0811e0e405e600U, 0x341419352411d2cdU, 0xf3820e5af0af8d7U,
  0x10fc2cf420cf0d97U, 0x34c3197f6effa02U, 0xed2ac7cc0a09fcdaU, 0x91ad02cf42cc9fbU,
  0xf2fecf19f4fe1357U, 0xfd7fe2b2c264f3bU, 0xeed3ecf3d60b00eaU, 0x5e5f319060e0012U,
  0xfce3ec2aff131e30U, 0x24f4f5111c0f0f0cU, 0x1681503dd4f6c9bdU, 0xfc023fd7ddbd570dU,
  0x18d42badfa2fc6c3U, 0xe34c11b3d2e0cfc6U, 0x20f18e41e02d4c7U, 0x438cf1ecd21f904U,
  0x21f83ce5f4bdd9c2U, 0x10000ee304f21d09U, 0xf30ce6e7f3040e2fU, 0x8e9edfafe11d1feU,
  0xf113f62b0cdb1609U, 0x15e0fe1b11200cfcU, 0x2c9ee01eafb08dcU, 0x2f02c0725fb081cU,
  0xe2d0bf2001321b27U, 0xf624cf061dfc0ceaU, 0xfceb400906feecdcU, 0xe9170907e2ff4217U,
  0xbe91cdc02fddac2U, 0x40ae5e0f4f1f1e3U, 0xe19fbf90df5ceU, 0x18f70424f8fdfa0dU,
  0x110705f50400ef02U, 0x311f602f5f5f2U, 0xfb24150201ddf8beU, 0xf806181606ea191aU,
  0xf9fb15d50903fffeU, 0x1303f0ea0407d9eaU, 0x309ff0d03f7f6dcU, 0x705090bec050910U,
  0x12ed03faf623fa07U, 0x80ff8eafdfcf50fU, 0xd0743001c301a28U, 0xceaef3a54ccf519U,
  0x9ed20e92cdeea23U, 0xd5c61e4c23f3dd1fU, 0x151d7f02271a2a41U, 0xe6e502427398fb23U,
  0xe6c042dc31cfc82fU, 0xdbc7fa5e3009c91cU, 0x1afe50fd131f1821U, 0xfaea002045daf01fU,
  0xfbcc25fc0dfce222U, 0xd8e800332b06f42bU, 0xe2fc92e6dbe6e403U, 0xd23f4ffc1eaecfaU,
  0xb2fcbec00fc1de4U, 0x10dc18d5dff4f9d7U, 0xe6128ed5dac3d81cU, 0xe21ffc08aedbe8f7U,
  0xe732c5e1e8f210d8U, 0x14e0f2d2df01fcd8U, 0xf1ecaaebe4f0e104U, 0x30afcf7d8effbf4U,
  0x50bd0fee414feeaU, 0xde5fbe4ee0d06faU, 0x2515e7f3feda0200U, 0x8a1200170206082aU,
  0xf0ff1521fff004f6U, 0xc902f0fe060301e2U, 0xc0010809efe5eaeaU, 0x2118ea3603021c17U,
  0x4c0a12e6ece2f90aU, 0x23fce80207ee0cdcU, 0xdf71f06e6fce1f5U, 0x45f9fe1ffd0503deU,
  0x80e0ae9fe0cef09U, 0x9fb07f701f40901U, 0x1015dc02fbc00a01U, 0x810ff815fa03052aU,
  0xe7ee072beeee0bdaU, 0xdaff1b03fa02ffdbU, 0xbdfa1e09edfbfdd8U, 0x440ee93c0dfd041cU,
  0x501712d204f810eeU, 0x38e5f2080afa00d5U, 0xbe4360cd40ee5ddU, 0x5ced090807f7f0d5U,
  0x803e0091ddf03U, 0xfdf803f8f2f8U, 0x2a0ff00e14eb00fcU, 0xb4010603f804060aU,
  0xdce8fd27e70916e5U, 0xe20222fef10afeedU, 0xdff80a00fc0603d0U, 0x1801f91ef802f811U,
  0x180311f00b0703ecU, 0x25f4f200000b02f5U, 0x10f41010e90c03e6U, 0x21f307f400f1f3f6U,
  0xe5fe01fc0818fafbU, 0xf903f401ff00f205U, 0x10cf0a48071ff81bU, 0x7b73cd40cc40ac4U,
  0xf1f327e42c1515b3U, 0xfb371ec9f124bf10U, 0x18e50f5fc40abdffU, 0xfecb67d0c8ae2281U,
  0x1e311b11d3643a1U, 0x84718b6e624a0e8U, 0x1fd0406cce3a3c9U, 0xf0261803a1fd1fcbU,
  0xfff9dad5f2033cfeU, 0x1b16ffd2ed021ec9U, 0x18bd1c1efe21f900U, 0xf39b5cd70fabf2b8U,
  0xea0423da3722efb5U, 0xf14808fe1204b0ffU, 0x12de0f2df1fe9dd7U, 0xf5ec6cead4bafca5U,
  0x6f519fc052e39d5U, 0xf14bf3da2015c5e7U, 0x7defce70eeb9da4U, 0xff3b1326cb2512e2U,
  0xf5f9000ef0fe261aU, 0x13fef5e9fffe2afaU, 0x4de21e50f1502e2U, 0xfcce1bfd1de0dee6U,
  0xfd0b03071d06d403U, 0xf314fd2226f7f211U, 0xddcff8e1151dd8bdU, 0x1af8101908f5daf6U,
  0x2af61b110e090bf6U, 0xf20ae4163ce1fc11U, 0xece1e8e2131ae2deU, 0x2e060c17070df6ecU,
  0xbe1160c0d0f0ff8U, 0x5f8eb0805f10221U, 0xfd1c04e4f7fa031aU, 0x1f9fa050afa040fU,
  0xd40501e2f2d7fa09U, 0xecf8dc170263fbf9U, 0x71903e8dbe70912U, 0xd9f3f7f313fc0b09U,
  0xaefe05dbf6e901feU, 0xf4ffa916f87ffbfdU, 0x90c0e10d0fdfe16U, 0xc6ec01e70cf0f2faU,
  0xcbf50de2091119eaU, 0xfa0cdf100246f2e4U, 0xf0fbfcf5ebf20912U, 0xf6fdf1fb00f8010dU,
  0xfc04f8f7ee0511faU, 0xef60402f91bf6f8U, 0xfbf31501dbedf704U, 0xedeaefe1f0ef06faU,
  0x1404f1f2f4251bedU, 0x1fee0aeaf9e3eee5U, 0x5ed0a0afff7f8fcU, 0x5f4fadffcee03f7U,
  0x26fdfc08fc1324e8U, 0x10ff12f905c3efe9U, 0xe5f8fa1410030201U, 0xcf006edfffaf901U,
  0x20e60a0f001208efU, 0x12031d0400c1f702U, 0xfef5fd213afa04f7U, 0xff209f905f903f7U,
  0x26da0323fc180ef3U, 0x1d0a23fcfd98fd12U, 0xfd01060d2ff90303U, 0xaf9f804030204f7U,
  0x1aef061ef4fdff0fU, 0x8fa18f9ffcfff1aU, 0x307ef0eee04fc0bU, 0xf0fb0b09ec0bfddeU,
  0xf6e8080aeb10edU, 0xb09fc0fca0b0f03U, 0x1007f104defd160fU, 0xfdf0ff09e50e05d5U,
  0xfcf8be01fdfc08e7U, 0xb0f0aeca4061bf2U, 0xe0dedf9e9fe1609U, 0x1f9f40ff20315e5U,
  0x104c80cfa060bf3U, 0x30004edd70207f3U, 0x1f8f512eb0207feU, 0x3ef0800e70bf2cbU,
  0x9f1d20907f90be3U, 0x1715fb0faafc07ffU, 0xfdf8fdf5ebfa28feU, 0x4e8f602ec1a00b9U,
  0x2f193fbfbf907d7U, 0x1113fcf481f71eedU, 0xff0af7f1f3fd25fbU, 0x9f9ef0afe0e0cdcU,
  0x401af04f6fe12eaU, 0xc12faf3d0ec13edU, 0xf2f9f7fe04030a07U, 0x5ed03fcfe0bf6dfU,
  0xf9f7dd0a0af601e6U, 0xa0cef0fc902fefcU, 0xf40400fb110c1ffeU, 0x2fb06050e18eae1U,
  0xffe4ba1a11ecfdd9U, 0xa1cf408c7fb110aU, 0xfb050007100c16faU, 0x103010e110df9f4U,
  0x8f8db1504ff08f9U, 0x4140605f3ee1519U, 0x4db316f91f09fffaU, 0xf0ebfa0f1cf900feU,
  0xe8e70fd50bf2deeeU, 0x970afd1b090af200U, 0xf0c10131c101736U, 0xf3b91b0032f0f5edU,
  0x4cd32190b2105baU, 0xe40ef9fcdbf7df21U, 0xea30e923f7fd1216U, 0xf1fc24ee01f91ad8U,
  0x50e041e04253dd3U, 0x160f20f2df0beaeaU, 0x389f34fd182503f0U, 0xfcd5f9162fdf0202U,
  0xf7e6108f1fe7caebU, 0x8107052f19fede0dU, 0xe00125fd091f1b49U, 0x8bf130c2cdef1fbU,
  0x14e813071917dbe1U, 0x40aff1ef7e3dd2aU, 0xc458ae1ad8ee1022U, 0xff1928eef5eb0fe9U,
  0xfc2ff032fb3760dcU, 0x380b0903e510e9e1U, 0x13c025010024f5f5U, 0xf5e3001111ebf809U,
  0xf9eafca828d6e1faU, 0xc407082522fbfa0dU, 0xda0b22d5f2131c14U, 0x8e8080e16eae214U,
  0xf501000b01d211U, 0x19fb082d22e6f921U, 0xd234a7f9cde30702U, 0xef1c1ffbebf7ffedU,
  0xfe26eb16ec1f34fbU, 0x2bf9f902ff20f2d9U, 0xfffffd0b000006adU, 0x110800000627U,
  0x5fd00000ef0U, 0xfffff55000000a01U, 0x44f00000265U, 0xfffff16cffffeebfU,
  0x43900001c7eU, 0xb1cfffffc92U, 0xfffff855000015f0U, 0x1dc600001780U,
  0xffffff0500000899U, 0xdee00000466U, 0x82700000e26U, 0x460000001e5U,
  0x20000000700U, 0x1b2fffffeddU, 0x33cfffff8b3U, 0x1e500000062dU,
  0x197600000e69U, 0x8ab00000999U, 0xfffffde7000006f2U, 0x277e00000242U,
  0xa1dfffff23cU, 0x75200000796U, 0x15b000003067U, 0x9f0fffffb9dU,
  0x182d0000081eU, 0x122e000000f4U, 0xfffffdc00000036eU, 0xfffffdbe00000365U,
  0x42f00000736U, 0x5ef00001b1aU, 0xa1108fe1309fa0cU, 0xfef906fbfbf3e5d2U,
  0x1f90b1313fbf7e8U, 0x12ff020bd60a2113U, 0xfae1e02af6ee00f9U, 0xeff4fb0aeaf40208U,
  0xfee4f6f3f0f7f3e0U, 0xced4fbe93bfffef0U, 0x1324ec1a02fc12c4U, 0xf149321f1addd617U,
  0xd808024bd108f781U, 0x4cef836cf183adeU, 0xf4a7b72b2af305f5U, 0xb3f4f553db000927U,
  0x1702d10ef00cc7U, 0xe8afe5d960dffddaU, 0x6f8f0f4ff05fee5U, 0x102bf21d27e90c1dU,
  0xde15f015a312f1ecU, 0xf2dbdc1ff1f6b8ddU, 0xad6df0d1ef8f9e4U, 0xe202f048d0040d12U,
  0xe60312d501f915e6U, 0xf2db06002fdc0aeeU, 0xf1bf9f10bfffc10U, 0xf00e400fd10f2dcU,
  0xe09f40012f0040eU, 0xf4f70bf4e9011213U, 0xc00e8f8e3f0e0fdU, 0x70401d90af10efdU,
  0xfbfbfb110efcfbfcU, 0xedf1180508fafcf6U, 0xd2f0011e702ff00U, 0xafdea0e09f8fff4U,
  0x12f7fd1dfc1deb09U, 0x6ff0311ea0f10fbU, 0xfefdeaff1211e703U, 0xdc0df9fa12f611ffU,
  0xfa14f60b03f90eedU, 0xfdf9fad41dfdf8e4U, 0xf91d0102f702f70dU, 0x80aed1d08050a0fU,
  0xf800f90cf50f032dU, 0xcf6f307f4f2cbf6U, 0x150feef612f8d902U, 0xf806f8f804ef1200U,
  0xf512001909fff5f0U, 0xf7f601f2e9f107f9U, 0xfe09ebeb0af30202U, 0xa05e5f4fb0e07e4U,
  0xaf8f8e405f20d0aU, 0xfdfd1a0011fffd06U, 0xfb23fdf1d8f4f5f9U, 0xfc080ee214f30a01U,
  0xf7f6e41a0508f90dU, 0xdfb1401e5faf5f6U, 0xf707f2f5ee100b0fU, 0x15e0e502e90b0ef8U,
  0x1406f7eb0c12eb1aU, 0x715020b180ff9ffU, 0xfc1c1de1f60dfdfeU, 0x10080ed62e04fde9U,
  0xfde4f731f1f50c17U, 0x71300eecb04feefU, 0xf00bf81108f8fa0aU, 0x3ecf7fbe61c1214U,
  0xfa03ebee08f4ec0eU, 0x704f8fc08fbe3ffU, 0xb27fbe90dfb0903U, 0xf091cee1bee04eeU,
  0xf02112900ece206U, 0xfefe010aec03f501U, 0xeded20fa221f31U, 0x1403f1e029270d28U,
  0xaeb06d6001e0a02U, 0x1a2e1d170307fb18U, 0x10de163a1d0af308U, 0x21071b09fc200e0aU,
  0x2b14232511031311U, 0xc3dedf1ee0220f2U, 0xfbf8fa0b02481327U, 0xf80b11fe232d3017U,
  0x1b15ca0030faf1f5U, 0x1a3bfd0a2c14ec0fU, 0x1521012626fef62eU, 0x10fc1c10202113efU,
  0x3320ff47cfec0910U, 0x17290110ec05d5f7U, 0xe20eecfdec290c28U, 0xf503e606181223edU,
  0xf41aba132501b4e0U, 0x1e30e3ff443cc6feU, 0x8f0ef1e0409fa04U, 0x91b1fed25ee09c3U,
  0x42390630d1d6131eU, 0x3e221503e4edd9c0U, 0x2ea0b08d3349d0cU, 0xeba7da06f929f020U,
  0xdbf7f226360703U, 0xc82bf91afaccd603U, 0xdaccf8321704ced9U, 0xf8010001ed0cf9beU,
  0x12e0e145f0fef509U, 0xd340f9e9c4c7e723U, 0xfc05030f0018fbfeU, 0xeffef92b0f3934fcU,
  0xf8fe0c103103fbf1U, 0x352fd0811c7ebefU, 0xe2f9e5031af1e31fU, 0xf799ea1b15d8f1f2U,
  0xef130246c4ddfaf0U, 0x22110cc3d2eb12U, 0xd820d5e3fc0debfeU, 0x7dae113fb04160aU,
  0x6f4e7002801bee7U, 0x3232d8f833f2be01U, 0xe5d80809effe03eaU, 0x1baf3e2e8ced2c1U,
  0x617fe0c94c3152cU, 0xdf210be8a4ddb2d5U, 0x5ee1117d212aadbU, 0xdd89e200df1d0410U,
  0x10c90e2a2d20ea03U, 0xb81edcfb0a9cbe0fU, 0xf9d4fe1331fd28e1U, 0xced0dceaf9f8e09dU,
  0xfcf9d320aedbe920U, 0xd14d1de1e0cae027U, 0xf3f1f2fa10d2cde8U, 0xcfe0e72df02421e5U,
  0xefef333814f3f704U, 0xf30606160791fcd9U, 0x206dbf503e233fcU, 0xe494d50f0bc8dbe9U,
  0xf40aff32bdd1fc01U, 0x163d2007cf19f8faU, 0x625effa06edd5e2U, 0xd0e8cb2ce20e2514U,
  0x1fbc0ef817f2e1e9U, 0xc441af22df6f228U, 0xdae104f500dd37efU, 0xe5b2bed203a8c2e6U,
  0xe1ffea0681f00808U, 0xca30f8f5a0efe3f9U, 0xebf8d5eafff6f31cU, 0x1fe415d3d54c0308U,
  0xe71abf1502500304U, 0xdef601edeeefce3eU, 0x80e08d9ceeed6d0U, 0x1ee906eefcf42af8U,
  0x904f015efe20d0aU, 0xf90f4d2405011023U, 0xfcf8baf1e6fbc12bU, 0x1ff51ee6dc5cd016U,
  0xbd2acc0bf6060035U, 0xa1f1ece9bcb6ee1eU, 0x37ea060319c0f6beU, 0xcc2b5ff16d244faU,
  0xd413f925f9ea04aaU, 0xc5f0553402c52245U, 0x11f0e316120fb724U, 0x17cd0b0fd016d709U,
  0xce0f011bf9e90e3eU, 0xcafafa04f7daeceeU, 0x14cdfe0a17d6f1d8U, 0xe7e7cd2b22d20f09U,
  0xeb0929f3fceff6e5U, 0xcbe52016ffcd020fU, 0xf1e3c1f60001cb27U, 0x27e923d0dc63c13bU,
  0xb22db11deb1d1604U, 0xc5c6f3fcddd8b051U, 0xe9fe13c30dcaeae4U, 0x25caea2223f75411U,
  0xe811010cf6e1ede0U, 0xe405482d2bdefc34U, 0x24f7d4c4fdf08557U, 0x26da12ff0b5e9238U,
  0x9c63c22ef6e6fb53U, 0x9ee92116bba5ed49U, 0x1bd6e8ff2e81ddbeU, 0xc9b981403ae15df6U,
  0xac3b17da0cf2ed86U, 0xc00167392e981e48U, 0x9dddaf10604b332U, 0xf2dafa351e189d07U,
  0xee30e036e2f81123U, 0xb004344ce9bf1af5U, 0xfac5fb2031a5f9ccU, 0x9ceca14f10d0f6f7U,
  0xad4312ae02ff0dc0U, 0xd3ea15fb3dbe05e6U, 0xfdfad90d0dfbf905U, 0xfd0f150a0916b82dU,
  0xcc30d824f9dee91bU, 0xffdff51adffae825U, 0xeefce3c32adeef01U, 0xdde0e941160c3a02U,
  0xf81524ef15deecedU, 0xffd1b2d31c1d90fU, 0x1dedf2f22cd4ef1aU, 0x14f7fb083de4ce15U,
  0xdb48ff32e209f129U, 0xfee423ffd6141233U, 0x3e4f720fdd5edf1U, 0xb9fae249d6202feaU,
  0xf00af7b7020fe0c6U, 0x2f81f0a2eed030bU, 0x11f1fef3ddfde51cU, 0xd8e8f80b54f204f6U,
  0x211bd328fe13f90dU, 0xf0f22e111a0b2beeU, 0xf3fbf5180ceefbe2U, 0xdb130720c824f000U,
  0xf50a04ddf4100ad9U, 0xefffac80af604e1U, 0x16e11dfd1bfff6ebU, 0xf604f142d2d70104U,
  0x41000315dee3c5edU, 0xf0402232f0504a5U, 0xb9ff0f04f1b21e41U, 0xbe0fdff41ff4d9e1U,
  0xe0ececf1e412bff4U, 0xdbfbc3c1fddaf8fbU, 0xffe80bf80adc0be1U, 0x82e12d324090609U,
  0x141b41ae453d4c7U, 0x15f2f8c62df9f701U, 0xfa511debf515161aU, 0xfccb1df6b9ef04deU,
  0xe5f6ef10ed0ce5d7U, 0x150b28d7fb16f82aU, 0x32f11f27e0130af8U, 0x2a0805bc302ff716U,
  0xd956dd280a0affe3U, 0xf40bf5b30bf40724U, 0x2d1704e7d21cf424U, 0x32f21afcbbe31c1aU,
  0x1cf1021b13170efdU, 0x28065411ef140e24U, 0xd2020b000af7e3f5U, 0x1103fb42dbaee002U,
  0x281f0408d8020a03U, 0x13dbd6091b02fa96U, 0xc20a05d4edc1210aU, 0xc012e80311fffac1U,
  0xd0d9c4f4ca0ac3c6U, 0xfc16bbeef8ea1af8U, 0xdcf7fef8c9ee21dcU, 0x580145d43e13dd1cU,
  0x1572c8def37f078fU, 0xecdda2bb05e81c0bU, 0x143e0e9cd14504f1U, 0x32e13102950042fcU,
  0xfb9ef82ef02605bbU, 0x37e43b2819090a59U, 0x180118fff51efa19U, 0x34f2eacf3764221bU,
  0x61813133b372410U, 0xd52f07c82fca1627U, 0x41110df9d431ec09U, 0x23fb1225d3ca26feU,
  0x32e4fe5f0b2a3803U, 0x240f62300b021f2fU, 0xef060d11000fe8f1U, 0x5010730c2cafaf8U,
  0xec07e3fcfefa1c02U, 0xccfcf12f0d1f0e8U, 0xa26ecff0bfe13e6U, 0xf3f7ead518dff5eaU,
  0xe8eceff8cc01e1d0U, 0xfb04e513e4040ef4U, 0xedec0e10cafbeebbU, 0x54d73ed811fbcf08U,
  0x806fcdef83d0ed3U, 0xe4dbbef014d3203aU, 0xddffdff2c64307c1U, 0x8fc02f8daf3172aU,
  0xfdc9ef3d171c2a0cU, 0x8e5ea3d04cb1031U, 0xf5082405172cfd03U, 0xf7ea02d01049560cU,
  0x3dd62b172a1211f7U, 0xf62418f50de11627U, 0xf7f935e7f132071bU, 0x3e00c14eee6fc0bU,
  0x17e7fb4209074117U, 0x2137301d11ff0812U, 0x2109f8c610c820e4U, 0xf717e9176405d2deU,
  0xee939e52abe0c2bU, 0xf424df24430efae4U, 0xf3f3d815f5fee8fdU, 0x260435aa98fcdc20U,
  0x2904e9d327fdd426U, 0x31bea2d8cfe71df2U, 0x3807cbed05d00b12U, 0x170702252bf08af5U,
  0xc70239051d9c4222U, 0xdd0aeb1141dcddb6U, 0x54e0bd330203ee1aU, 0x420b50a9d61a471eU,
  0x1de8c0ee2cf1cb0fU, 0xad1e4e2e10af305U, 0xedf3f123092515f8U, 0x14fd10ee1529d82cU,
  0xd8eff8ff0ce21cfaU, 0xf510ebe71e27dccbU, 0x2be100113f1dc21cU, 0x1b1434f604f03612U,
  0x11ddf816f2e706efU, 0x1c282af7091fde20U, 0x481b32c4a9dd0ef5U, 0xdde4ded1fcf607e1U,
  0x5f852df30f4a9eeU, 0xef35d4053dcb1395U, 0x2515ca19d8fd2af1U, 0x53d827c2f3fa45dcU,
  0x37051be527fdda16U, 0xfeca2ad7bb221d2dU, 0x780116d09fd30ce0U, 0xe3b1efe6df01070aU,
  0xd6fc6d12091108ebU, 0xf71edb0d28cd0181U, 0x5c34e832dbef11f8U, 0x6dc746f905fc62eeU,
  0xeefbd8f716f3da1bU, 0x5991acacafa0a33U, 0x24e9f720c300ecedU, 0xcd3f0ebdc0dc61dU,
  0xfee035e8f5e31ee4U, 0x5fdd700f506eec7U, 0x2805013d1907ec16U, 0x13143ffe20fb3ffbU,
  0xde8fc0beddb23f9U, 0x18120bd1f804f019U, 0x29383ce6ff2b080bU, 0x1b01eed4d9db3424U,
  0xf9f610d22dfe9211U, 0x2e54dd2cae1c06baU, 0x191b1ae6db0b1b15U, 0x1f03e909041f35eaU,
  0x392c1bfe06e9ef2aU, 0x22e20c170418ea0aU, 0x394341bc400514f3U, 0x11e0c1f3e8af2319U,
  0xf00631f0f1fabe25U, 0x4e3c0d15db0002b7U, 0x1a392b40bf041413U, 0x310f5401b041cf3U,
  0xd2f7ebf7c8f2bb21U, 0x41dc13e8f40e011eU, 0x1e0ff8ece9000222U, 0x7e8fdf2ebe71907U,
  0x12f423e7e8e80e0eU, 0x1d080f23f11614eeU, 0xf21a1038f4000001U, 0xe2a15192c1b0d0cU,
  0xfd2b10ffc2001b15U, 0x280aececed0f080dU, 0xfa02ff081df40301U, 0xfe0d04de0fe81cffU,
  0xebf5f501fafe03f7U, 0x7eafbfd050afd0aU, 0x16f214f0effd0613U, 0x8fe0e11f3030106U,
  0x4ebf0f9f9f4e709U, 0xa01f90a0714050aU, 0xfffcfefb2a011108U, 0xfb2208ce0adc0bfbU,
  0xf3f0f6fcf4f801f8U, 0x12eb04140117fe0eU, 0x1ff00cf5e0ecfd1bU, 0xa0a161bf706fdf8U,
  0x22d6eefeef08e503U, 0x18fdf411121a0002U, 0x40cfdfa1902080aU, 0xfe25fbe407f6f9f5U,
  0xf6ee1302fef80cf6U, 0xfd02091108f70112U, 0xfefa02f8ebf8f70eU, 0x7131615fb070b00U,
  0x19e8eef9fa08f90bU, 0x130204fd0d0100f8U, 0x7df0a01031c09f7U, 0xfe01e4ee07fc0c0fU,
  0xfcfeec1401fff6feU, 0x15161400010d120aU, 0xecf623fbecfb0704U, 0xafd0100fcf9f7ffU,
  0x10e20ef708fd0004U, 0xf7ed04e8f61709f2U, 0xbc8f9ef14260efaU, 0xf718efc702f70c08U,
  0xe619e411fb04fdfbU, 0xffdfdf80005191dU, 0xbef24ffe4f70b13U, 0x130421fff7f30402U,
  0x10e7fae7eef1f004U, 0x1be602eaeb27ffe3U, 0xfbeff5f72016060aU, 0xfb19f9cffaf30e03U,
  0xf21a020702f60106U, 0xefbf503f906051bU, 0x7020efd0c07fa10U, 0x9131a0704080a01U,
  0xdefedecedfaf100U, 0x1af20606fb12f8fdU, 0x12dc07efab13e1d5U, 0xfbeaed19f60bec05U,
  0x19e90ff90902110bU, 0xdef4f5fa09e803f9U, 0xf7f11304050000ccU, 0x9f100fcfef901fdU,
  0x1e816f5f90c1deaU, 0xfcf50804e9fe0807U, 0xcc712ed811ce1dcU, 0xf6dbdd1be703d30eU,
  0x14eff2f301021511U, 0xe8f8f2ebf9ee14f5U, 0xf7e01d0102f007caU, 0x5f1fbf5f5eff800U,
  0xf7f616fae00429ecU, 0xe3f4ff08d4180b02U, 0x2e008f4d51af8e5U, 0xf8f0f80aed07da04U,
  0x7f3f3f9fc110618U, 0xfb00edf711f008fcU, 0xef203f6fcfd0de2U, 0x9ff04fbfeebf309U,
  0x6fd13f9f6f60bfaU, 0xf2fdf602e711fcfcU, 0xf41ce40014e5d0U, 0xc8070bf9ec07fb04U,
  0xf81008fce62ceef2U, 0xeceb0409f7f30c03U, 0x10f4fa16fe1712e1U, 0xf6f7c21b1f0ae5faU,
  0xf802fbfddd0e0de7U, 0xd7e1ecf9ef071308U, 0xa1216d9eb06eae7U, 0xc1efd802fcdcfb04U,
  0xf607fef9f80bd5e9U, 0xd2fd0b19d3f101f2U, 0x11f5fa05fa120fd9U, 0xf5f0c2f91110c3e2U,
  0xce05e0e6df07f2dfU, 0xb704f6f7fef2030bU, 0xd91513f9f6010501U, 0xe20be62a05e915fbU,
  0xfff7f1170bf2e6f9U, 0xf3031a2406f0ecf5U, 0xaf7f8f30bf907f5U, 0x22eec80f25f7ebdcU,
  0xd309de0bd4f004fbU, 0xd320f5050006fffbU, 0x81a02e6280ae8e1U, 0xc60af4fbf6ea0706U,
  0x1b1d20fe021fd6f0U, 0x171f1104f7f10910U, 0x1117fd03f9051eeeU, 0x1401e408f716e3f5U,
  0xd9deeaf1ce27fcd1U, 0xd0efef07f2fc2209U, 0x132010d3fd05e6f4U, 0x81f5af1403db17f6U,
  0x1b13040a0305a3e8U, 0xb8141a1dcc03fc0fU, 0xd0e14ed04f73fe7U, 0x24e2adffe9f191d5U,
  0xb9efc907d520fcf5U, 0x8d2306e2f51f06e7U, 0xf00ff6f3f70c000eU, 0x8310c5400e0016fcU,
  0x1103ec2a0decd7fcU, 0xea200f180adaf809U, 0x219ffa21be420fdU, 0x34c4adfd18d2f3c7U,
  0xd401cf16d0140211U, 0xb34408efdafcf0f9U, 0xc230f0c2a00fe01U, 0xbc18ebfffaeaf5f3U,
  0xa1f221dfc11e1fcU, 0xf0312020ce80e23U, 0xfa17df05f1ff2306U, 0xdf6e50e1900d6e9U,
  0xe603d0e6db3f08e8U, 0xd0f3f5070dfd1dfbU, 0x60910070d03ef0fU, 0xb6e9ca0700e60ce7U,
  0x1e0914250c0fd4f4U, 0xe2120c00e9280b16U, 0xfa1a09e2f7fb22fcU, 0x21e1bc07fae5c1d3U,
  0xcefca414c624ffe4U, 0xa626fee70b2222e7U, 0xf114fb05f9130118U, 0xc7f9d03606f320f4U,
  0x22f3f8291910de0eU, 0xf62611fe1eeef40fU, 0xfa191bba09e91d08U, 0x37dcb20a25d9ffd9U,
  0xd7fecf1dda1b0714U, 0xa239f513cd040809U, 0x6ce111bda1919f3U, 0xe3fae41806d90f09U,
  0x6e61f06051208f3U, 0x1b0000eb160207ebU, 0x14d61407fa270af6U, 0x40306fffa1fed07U,
  0x1add251cee172c0dU, 0x10ff12bff12000eaU, 0xd9e4f914153e3510U, 0xeb1ee3fffcd31ee4U,
  0xea0a0a01fd000cf7U, 0x1d151ae11110e1e1U, 0x1b02fc230209e43aU, 0xe1025e70700f915U,
  0x2a1bd9f4d8e41444U, 0x26f117ab0336b9d8U, 0xb107c8ff1f04f9faU, 0x4310aff0a042910U,
  0xe924b1f10604ea14U, 0xf313010200fef3f0U, 0x101a0ffa21d0c424U, 0x1909140af1f343ebU,
  0x16f909f5cfaada2dU, 0xe072fd01a1ebafdU, 0xf9f40e05ed2d19efU, 0xf2effc13e2f60d0eU,
  0xed080411e811fff3U, 0x1b0c08ef1402f4e3U, 0x23da251f1942da1aU, 0x14131ade2d19e71fU,
  0xcf60f0bf4f12714U, 0x23f608befe31e914U, 0x8b03b410143d1427U, 0xea720be5ef081d0fU,
  0xb73cd3f01afeff19U, 0x1cf6e2ed26fd87d7U, 0x3300162639e18c5eU, 0x1ef433defbe80c1aU,
  0x1822ee04dc81093fU, 0x26ff27d41c389dfcU, 0x9c0ca70f282ad707U, 0x1235f6072130e624U,
  0xc23eaaefffe61a27U, 0xdeeedafd3ee5adfeU, 0x38f9130529a09b21U, 0xcfa1d28ebca5df5U,
  0x30bea12fda0e4faU, 0x2b134c51050bb928U, 0x306000ee836fef9U, 0x1c02f9e6df0c3221U,
  0xfc0bf2ff210df5f4U, 0xe901d4f40b18e5e6U, 0x19f32df91630d90eU, 0xfc0b28e33afef2fbU,
  0x24020e1100ee0a0bU, 0x18f20cf70b14fef9U, 0xaddbbb191e50fd2dU, 0xf3530fd8032b091bU,
  0xc847c6ed02e21b09U, 0x6e4aad719d793e7U, 0x3e1a23f840cf8c63U, 0xeeee08f910001bf3U,
  0x141f29fb0ba6e3e9U, 0x36f8281c0d01c91eU, 0xe007d310180509d8U, 0x2b221ce61319d312U,
  0xdb21ecf800ef1811U, 0xf7ded705f5dae703U, 0x11e7faff02e3db39U, 0x40626081fdc2808U,
  0xfbfd200e37d5ffdaU, 0x36eb243517e6ea14U, 0xe809e5df1c14e315U, 0x631c6fb0ae8fbe2U,
  0x21f6d203e2f90f12U, 0xf61520f12a01defbU, 0xc070f062bf3c928U, 0x916020605f1f0fdU,
  0xe90ff309f1e9e43bU, 0xee1d0db9f601e7e0U, 0xe4d2e8fce70dd913U, 0x1510f3ff0ffe0408U,
  0xfc0aebfe100a102aU, 0xcf18c4d400bee012U, 0x2cff27d001e0cde2U, 0x2fde12e202c62aecU,
  0x1210de31010a15dcU, 0x32012734c9390a18U, 0x2bef221600fa01f9U, 0xf6ea032df9f91102U,
  0xee7210a0103e515U, 0xb0efe15fc0617f7U, 0xea0d02e602f81912U, 0xf5edfe16ffd8edf9U,
  0xffec07f90205f621U, 0xf0edcfed14060cf0U, 0xe0fee8f229210c29U, 0xd0903f2fee10edbU,
  0x2815c5ea0bf90318U, 0x182919d218f2d9fbU, 0x1a211ef9fbeab51fU, 0x90a28f4f701f909U,
  0x10250617ec07efffU, 0x3c12f7dff21003e8U, 0xdfd40b48b7d33c8eU, 0x21c37014f410a42cU,
  0x93fe7fd1041abdcdU, 0x42bbb462bb082bfcU, 0xe5e0cfdea0195fb5U, 0xf5f50b290214220cU,
  0xac6f8e4061102ffU, 0xf2bfb35616f01d24U, 0x17d8f9331ed918fbU, 0xd4faeb170ffce80fU,
  0xfde03ae3d925fe0dU, 0xfdeae103362d03d6U, 0xda31e6f519fe320fU, 0xda041f28e9190b1dU,
  0xffcff3d100f1ef06U, 0x6edc9cd2fe6f4fbU, 0xfafcf403ff0ef622U, 0x80f06f3fe1b18e3U,
  0x111e4f90a01fd0eU, 0x51d0dd8e5eee2f5U, 0x1a1715e2f3f5ae04U, 0x1ce011e9e6f010fdU,
  0x222a1132ea120801U, 0xd0723f6ef130000U, 0x9f3f7f7dfbb15baU, 0x1cdf1fe2d108b234U,
  0xbbfd0bfdefecd7c8U, 0x18c5e148ca142f15U, 0xecd1d437ee2255e4U, 0xb0d8dc16420802fbU,
  0xd9ced2b40aecdc04U, 0xc3e8d3fd2fca0119U, 0x1efbfd01f5dbde27U, 0xecf5e7f21204f6fdU,
  0x18eed4f703fd252fU, 0xe50deef630fae5deU, 0xb060f072afcdd0cU, 0x30eff0be5fa1600U,
  0x160afa03f6fd02e2U, 0x130018e5c9fff5feU, 0xd2e7b2e7fc290331U, 0x208ef44faf8dacdU,
  0xf205dc1408f91800U, 0xf523ec0113eee5c3U, 0xd270bfa0ab6c904U, 0xfc2421e81aeee3ceU,
  0x4f20ffe1fae32ce4U, 0x4ee500e5f9fed1d8U, 0x500faf207ca1af4U, 0x25c93cd1ec0fdc1bU,
  0xdc1e06f0d52314d7U, 0xe3f4f8fec6061e02U, 0xefeee0fad73afbedU, 0xfd35ff13e02815c5U,
  0xafafcf4410fe2c9U, 0x2fe31dc60ffb211aU, 0x12ff3a0021d41dd3U, 0x21e439b810180a18U,
  0x311929f5e21b30d7U, 0xf9e21722e3fc402aU, 0xb9f40406c94ce6e3U, 0xebf0d827e227f2f6U,
  0xf1def7053d2beb18U, 0xd0ec14bf181a3512U, 0xa7f79f0be53cfaf6U, 0x8fdee47f226ead3U,
  0xca00ef1a1cfe1426U, 0x347c2d00406b8a0U, 0x6a1ae0fe3daaa225U, 0x81331db0bc1ecc3U,
  0x6d3908ee16a451fbU, 0x35103e0f0ed681f4U, 0xa743dadc0c0423faU, 0x46ed2fe4ecfff509U,
  0xa208f103df2302e8U, 0x1702d009c948f9f1U, 0x1bd7caf6fd23b4eeU, 0xf4473ae5ea350ef3U,
  0x39f6fcda3dbcaf03U, 0x22b917c314e6d11fU, 0xe121f6101fe02ef0U, 0x1efd24aa13ca1f0cU,
  0xe5fd05abe11400d4U, 0x10caf103f9161006U, 0xb1e90c0eec4ce600U, 0xe511160de86200eeU,
  0x31c8faf81102c051U, 0x1209fdbd0ef71f1aU, 0xdf0dc50cef2bfcd9U, 0xfa2fd72dce3b0e16U,
  0xad0411ff3dd5152aU, 0x193df4def125dbcbU, 0x6f13c8fc5891b421U, 0xdd0150cf6ca06daU,
  0xb4208e513a92b00U, 0x27f53b2e15e4ad18U, 0xd6fbe4fdf3122110U, 0x24faddd4df140211U,
  0x9f1bf8e1ef280a04U, 0x2a16d2f8db31f5e4U, 0x28fada3301fde202U, 0x151a2adbfd071d07U,
  0x1f0f100032d3a50dU, 0x1dbc3cd90edfe41dU, 0xd9f2cf35f40b0f0cU, 0xef1020e612ecf70eU,
  0xc7f2e6b6e41a0006U, 0x2101def7dd1e00f1U, 0xdd0a1240e01ae3edU, 0xf0212bc4f537160aU,
  0x2aeb00fbf8ebcc49U, 0xbedf6d700f4051dU, 0xf30c2ac9f7f9fe9bU, 0x16d212beade50322U,
  0xfa24fbecc36fdca6U, 0xcee50cb0ff0c20U, 0xdbed15fcc27f20cbU, 0x12dd9071c41fdf1U,
  0xe2bfe503effacbe3U, 0xddfafddfd9f0fc1bU, 0x20d1eecef07e6c8U, 0xf0f0e3e2d2060914U,
  0xf2130802cd48020eU, 0xf1dbf6fc030ffd29U, 0xf7e60e08014720f9U, 0xf71df301182006f7U,
  0xd2e0f906e7eb01f6U, 0xe11308f5e5e4f903U, 0xf9fcf9030011fa0fU, 0xf006f50d1416ff00U,
  0xf4f9f7f903eaf90dU, 0xf41120fc0af50705U, 0xf806010304dc02feU, 0xf30007f903fd0802U,
  0xfd0cecf904fafdfeU, 0x8fffe0d0e040601U, 0xfb18f1e4d10af8daU, 0xed9f6e1a1d11b12U,
  0x2f1beefcff47e5d4U, 0x16f3f316b6fafafaU, 0xece64af7cc5512d7U, 0x814e4031d11f5f8U,
  0xf4e5eff6f404fdeeU, 0xdff302dbe40607f5U, 0xf81bf2fae21bedf3U, 0xdbecf9fcdc0b1616U,
  0xfc1e09fcef3fee0dU, 0xece7e5f5f6fef20eU, 0xfce7180a031a1407U, 0x70af502050815f6U,
  0xf2f40300fde707feU, 0xe31b050bf1f6ed07U, 0xb09f5fb03fc0216U, 0xef12f40b250010ffU,
  0x1f7ecfef2ec0307U, 0xf90d0a0200f6fd00U, 0x1faf8f60cf20209U, 0xfaff08000bfe0300U,
  0x7fff40afcf9fe06U, 0x3010114fc0cf8f6U, 0xfb0cf70ad724f510U, 0x1f5fe130f06050cU,
  0x2de9f8ea16f709f8U, 0xfd0503f4100af6eaU, 0xfaf82af1f203fbebU, 0x3f2f7f802eef5e3U,
  0x109020c02001af9U, 0xf4080cf9fd0e03fbU, 0xf710f707eb1ef007U, 0xfffb05091e1a030eU,
  0xa05fff708fff602U, 0xf4ecf303f9f7fbU, 0x1f60af1fd060a07U, 0x9f6fefff5f70203U,
  0x80a0c02f6fc13fbU, 0xeb05ff10f80af307U, 0xafef00000fc02f5U, 0xfd0ef60806040c00U,
  0xfafcfaf5f6f403fcU, 0xe0afcfe010308f8U, 0xf9fbfefdfbf5faf9U, 0xff0101fbf80401f3U,
  0xff02effceef4f50cU, 0xfeebf6070000f600U, 0xcececebe6fb00e6U, 0xffeb1800f600e033U,
  0xd717f8f6dd12b881U, 0x19a6d711d2f938f8U, 0xdcbcf4da072504ceU, 0xd3faf9084515f3f0U,
  0x20d5c3c1ec16dbfbU, 0xc6f02af80a012114U, 0xf3c30014bfe314e0U, 0xf2fe19030bfecc26U,
  0xdd1020fbba22d1beU, 0xaa0d60cf41327f7U, 0xd3eafbaff81812e4U, 0xdf1b0f1f182beadbU,
  0x22f2aad7b91fdd0aU, 0xed0434ecfc202e20U, 0x16d403f9e9d90803U, 0xec2420e800f1d317U,
  0x50131f8ea26d9c7U, 0xf5d50700fff63102U, 0xd9f109d1041dfcd7U, 0xeeeaf80b3c121505U,
  0x19f9bfd7e4230403U, 0xfef23206ef101e11U, 0xfce6ef09cbf0f9d6U, 0x25cf261308fae734U,
  0xe104de22e8f1bf8bU, 0x14c6fa16bf071c08U, 0xc4b71fa7082c19cbU, 0xd110ff0a120af910U,
  0x2bd2b8eee107e50dU, 0xece137f21a2c1008U, 0xd9bdf513c3e1f5c8U, 0xfef327ff1ffbb134U,
  0xcdea1f14d307b4b1U, 0x22c1db03dd123d08U, 0xbaea039200231fd2U, 0xe927091ff11b0d18U,
  0x30dfade6cb1ceb0dU, 0xf7ee67f91fed032aU, 0x8ccee1fd9e20ceeU, 0xf4080a011603d923U,
  0xf6f611f6fb0ae0daU, 0xf0d4fa09090a290dU, 0xf6fef9bd0c1214e0U, 0xf5321a1c19280a0eU,
  0x1df9cff6df2ce712U, 0x5fc5d0e16ff0f24U, 0x8f1102e0ae8f417U, 0x112204141c04060bU,
  0x1ee0b90d04db08a4U, 0xf3ff381ff5de0006U, 0xf7ed25cd0206fafeU, 0xf3191d13f304003cU,
  0x2ef9bf08f60bff0eU, 0xff10aec130b03fbU, 0x9f7e41408d202ffU, 0x717061c25faf51cU,
  0x9effb2d11f2c8a6U, 0x1af51b14fff527faU, 0xafe05871c1dfeffU, 0xf1221a27dcf31a32U,
  0x1e09a8dc00f70a06U, 0x9ff2c1c1ffbef09U, 0x6f9eff7fcd3eb16U, 0x120cf90829f8f710U,
  0xfaf9d70a0de703c0U, 0xe7edeb0321effcfcU, 0xed50fc119fe0022U, 0x5380b3ff7f30924U,
  0x1c0b000603f6f9f0U, 0x28113b3e09e3e704U, 0xe52912c88164efe7U, 0x34bff8ccd1d9092cU,
  0x56dff2cee326d0daU, 0x13e0d1f78b130c13U, 0xdc0c55e3b93c23afU, 0x4210c8f51334e7cfU,
  0xdbc10a01e2e32201U, 0xbc06fad1d221d30eU, 0xf12911ef9f20f3f6U, 0xcbdf8d9eae30424U,
  0x46c3fec7d209effeU, 0x1d9cff3d81e0a16U, 0xe90b3cf0e4271be8U, 0x270bed180d29efe0U,
  0xe1c60908ebf51e04U, 0xc70702f9e406e00fU, 0xfd0804f8dcfafb07U, 0xfce6fc0105f1f9f9U,
  0x23f213daf0f4f404U, 0xf4e10401ef110e29U, 0xf1f8f7ebfb14f8f7U, 0x191af328f30004f4U,
  0xf7f204f6f4f2060aU, 0xde15f701e108f910U, 0xed0714361efdf534U, 0xfe100c45321bf0f4U,
  0x1dec250526bd3e45U, 0xeb1216093a05e400U, 0xb10e2180dd2f81cU, 0xf5ca0c1207de02fcU,
  0x5340e0c0cfbe606U, 0xa0ff74119f6f1f1U, 0xfffc0f321bf30b37U, 0xa120e3b271fe4dbU,
  0x13da2c082faf3a3cU, 0xfc15111a45f7fd04U, 0x1603c10e09cd100cU, 0xf7d2160f0ddf000eU,
  0x303120fd192bed02U, 0x22faf32207fc08f0U, 0x6fc041512fbfc17U, 0xfd020a070b16fedbU,
  0x3f4230a0cf11c0dU, 0x20300032502fd10U, 0xfc0a01ffeaf90dU, 0x3f711eefdf4fb17U,
  0x90a0ef5ff03f007U, 0x1006f90c010bf7faU, 0x7fbf0152be923f9U, 0x1023000c0618e8f7U,
  0xea140c0c0902fdfeU, 0x1118050202090b04U, 0x2113072900c8f517U, 0xe4f11c06fbf7091fU,
  0x19f920f10f00f612U, 0x1f8f71615fafdf8U, 0x6fc060913f414feU, 0x2106f20015f0fcU,
  0xfbfcfd00fcff20fdU, 0x40f1608e8111105U, 0xd0afc2ff4deeb08U, 0xf4081cf70fff1a0fU,
  0x1afffaf111fc000fU, 0x190103fe17fbfff0U, 0xfe080908f40600dbU, 0x103fbf5fa0ff305U,
  0xc090afa02090ffbU, 0x40909070213000aU, 0x6041a0df8fbf800U, 0x8080af702f905f8U,
  0x9f6fcfefaf201ffU, 0xff0d05050a0cfcf2U, 0x11242bea05e40010U, 0x2ae3e4edf31036efU,
  0x26f60526dec6dd10U, 0x1e041d1a33fb1cf2U, 0x1df53c2b14e4a829U, 0x1a14fcf03df6edd7U,
  0xe20db93ab3eaeef6U, 0x90632f90e440ff0U, 0xa2e50e636e3ec13U, 0xb7f5d5f1f8fb0fd0U,
  0x2b8bca24e5b0e61fU, 0x330361033131af2U, 0x3081417f9a6da2cU, 0xfcf8f074fe9ca3U,
  0xd61ace5fbd281113U, 0xe43d1f0815ed05a6U, 0x71315ee58ea0efdU, 0x1c1bd8e7160a15c4U,
  0x3dc9e60d0be3120bU, 0x1224400a1412fad9U, 0x220c400c13e2f005U, 0x2b0f122f26e9b6caU,
  0xfc12d511ef230203U, 0x117f4f7ea09099dU, 0x221e0800fcdcda00U, 0x9010c16fa0aec17U,
  0xf400e447040cddffU, 0xc41b10f920dd202fU, 0xa0f1aee0e03f918U, 0x39dbf7e928e7060eU,
  0xfa13f93418011d14U, 0xd0e5a141f2c1919U, 0xf6170dfe3681180fU, 0x94f2f61ef8e2e903U,
  0x1fb31517c00ce30aU, 0xd80e1ced22eb4206U, 0xcc2320f817d0e632U, 0x1c02f3ee4fe1de18U,
  0xe121073fec18ca2fU, 0x12370706240b43a5U, 0xf0251ff261aaede4U, 0xfffbf03d1dda0ac3U,
  0x3adbddfcf8d31612U, 0xd6eb48ee20f31718U, 0xc92118f852c9022eU, 0xfd17e90054eaf9dfU,
  0xc70ffe25e421a706U, 0xd3fd7f806e90a9fU, 0x1315f5ea01eaf304U, 0xdedef1e620fc1524U,
  0xfee8dd320e40f70cU, 0xc721020315d41b11U, 0xfd3c00e00b2307e8U, 0x2d91f02f0c7fc1bU,
  0xfef8053004051615U, 0xf70e2e131fe7f51fU, 0xfa0af9f930d2dae3U, 0xc3f7dfff1900fc18U,
  0xf604ff0eea1f213dU, 0xe61707edfcdf1a10U, 0xda44401325fcd710U, 0x1b0df9031cd9111cU,
  0xfb160b151200d1edU, 0x2d2712190bf80aeaU, 0xe91009f461d4edefU, 0x1fbd50e28cb0905U,
  0x1303ce08010d2814U, 0xd60030e502d31709U, 0xe2471c032cd7e530U, 0xd41ef5f51103fd07U,
  0xf5f411ff3016b903U, 0x236f01e25ff11e9U, 0xcbbd90ad439ed0fU, 0xf5022f0fcd2dff14U,
  0xdee1f4e20bd7150bU, 0xdcc4f9f7bed61600U, 0x30de60325f4aa05U, 0xf3bfc6fcc5fa0bf6U,
  0xd0221108c7e4ea09U, 0x705fb1215f9c339U, 0xe8c7efcf0044d9deU, 0xf9d34ccf9ffd131bU,
  0xede2fbd2cfb31110U, 0xdbd912cadbe73a04U, 0xeb9000e2c0ba610U, 0x20eedad3d1fafb10U,
  0xbf521c2beddcfb08U, 0x24124ff3f828eb4aU, 0x21f92aea071ce9d8U, 0xfbbe09c296e015fdU,
  0x7d5e1d7a9ad2b43U, 0xe7f83dc0090b191eU, 0xa9d0d0819f6e412U, 0x44d7cdeafeebdcddU,
  0xd127f1300aead846U, 0x10176ab7f825f446U, 0xe6c9bcd3da46e227U, 0xd6cc2ad835e7e8cdU,
  0xa3d9d3b3d3d7e618U, 0xe81617f1ae2953fcU, 0xd72adfd40afdc706U, 0xfeeed9c4dd10f1feU,
  0xb1341ad0f8ccfa1dU, 0x4cffceed03f8e10dU, 0xb9d0c1be0e31061fU, 0xbca2b81199aecf6U,
  0xb2c8dfa4bdcd2d3aU, 0xf1c02796f1fb6322U, 0xd9d810103017bb42U, 0x230ef9cacc11e5fbU,
  0xc1491019f2c6e147U, 0x582e35ed0d09bb55U, 0xc0fc03d026270bf4U, 0xf2d9138b0bc32239U,
  0xd8b4e5c79fb80a42U, 0xe9b325b1f2f33df9U, 0xdeb50f233a13dd37U, 0xee006c4cb3bf2e5U,
  0x2139033e04e7d067U, 0x52154ec1f939e16cU, 0xf5cdece4df0bbc36U, 0xddd63be11bece0edU,
  0xdad7e0f00806100dU, 0x94009fdf03f600dU, 0xd926e42de6edd1d4U, 0xfdede9b0d104de1eU,
  0xde1444fefbeddc12U, 0x803dde823db0c07U, 0xc6ceee150a0cd516U, 0xfaa93a8e1dd4d837U,
  0xd29bafc7d208e91aU, 0xeefc060516fd6003U, 0xc8fee77147fa09e7U, 0x7ebd4b1b4fbf3eaU,
  0xd91dee11bae1f328U, 0x1a1b0bd902ece448U, 0xb0e9d3dd2320ebe6U, 0xe0a614990406d94fU,
  0xe1bdc6dbc1edf41eU, 0xfcd8f7d203ef42f5U, 0xfecd1e63470005d7U, 0xf00efd7bc1002edU,
  0xf622d217dbe0ea5cU, 0xd0e26d2e810f856U, 0xec10f40802f40ffeU, 0xf3fd180b0cfbf4f2U,
  0x903fa04fe0afaf2U, 0x9f3f900f907f6f5U, 0x6fcd7f6f606e302U, 0xf6110307030afc0dU,
  0xfa0102e9fdfdff08U, 0xf9f3e9f515edf9ffU, 0xf720f0ff16f017edU, 0x306190e0ad8eecaU,
  0xfafe0310f3fdfbffU, 0x16e3f118f92a00cfU, 0x1ffb606f901e4f7U, 0xe113fa06ef14dd0eU,
  0xebfd0ac6fafff919U, 0xf2e4aeeb1ae701cfU, 0xf9080505fb0e0fedU, 0x4010c011df5f8eeU,
  0xafc0115f8090c09U, 0x802f606f41210ecU, 0xa00faf80a15fefcU, 0xfd06f60bf913ec02U,
  0xec0101f0f60c1f01U, 0x6f601020d0806e7U, 0xef20f41ff1f40e11U, 0xf200170ff308ecedU,
  0xfb04f9f0fa0a08f0U, 0x2ebf4faf912f7e9U, 0xf40fd5e90507fb03U, 0xdb1006fa050b0716U,
  0xd0508e70af4ff05U, 0xf9f6f7f217e8f5ebU, 0xec25dd1a12d91401U, 0xfe0e081df7e7d596U,
  0x4f7f2bbefeb05f8U, 0x16dcf908f836ffbdU, 0xdc1daa000df4f703U, 0xa5210de10f1dc11eU,
  0xedf313ad04eaee28U, 0xf8e181f91bcff6a4U, 0xfcfff013060f10f1U, 0xffff080b09e4e9cfU,
  0x1aeef6f0040213fcU, 0xbfdfd09061418ddU, 0xea0adcf51707f300U, 0xfb0cf6f5fe18db06U,
  0xdefa0dc800061f0eU, 0x8f3c3010bed08cdU, 0xf0a0bed071411U, 0x20113f7e81e08f1U,
  0x110002fdfd1314edU, 0xf1fff3e90408fdfdU, 0xf70af2f7f80f04fdU, 0xf40508fc020f0b1cU,
  0x8050a021d051feaU, 0xfefd03f9100304f5U, 0x314f918fde41102U, 0xfcfe0213e210e0bdU,
  0x140bfbecf3f51cfcU, 0xf8fbf4eb011afee8U, 0xd60ce706070506faU, 0xe014fcf0111be017U,
  0xf2f8fced19ff0afcU, 0xf6f5e50307f201d7U, 0xf601010a0be001faU, 0xf9f6f80ef8feecc7U,
  0x20f9f2e0f6f617f5U, 0x20604fa0c0f17e7U, 0xdbfffafb0e0c03faU, 0xf20f0301ff0be5fdU,
  0xedf9f7f406060c06U, 0x3faf40800ef0ae2U, 0xd3fde7e201e00a14U, 0x2aedf3db10f2e5ffU,
  0x161cef01e41daf20U, 0x33e2f63a163e04d1U, 0xe9eb0c41e90bf5baU, 0xe3d151a0009e7ddU,
  0x30fcd2107f2d302U, 0xff0e38d8d603fef2U, 0xc20ac6d5c21d3012U, 0x24ec0b221221e6e5U,
  0x1f02ca0a1a13f91dU, 0x1d15ff2f252a08deU, 0xebec0317e1f1dcb9U, 0x112b47010716ddf9U,
  0x38eae33311e9fef4U, 0xd52031ce070defefU, 0xd20904d601f009ffU, 0x8e909eedf1ce1edU,
  0xee2405170205e40bU, 0xfb04e11b2d1c1c01U, 0x1cfff9e2d60e1cdcU, 0x200402ea1d000b14U,
  0x12f0e6261de6df03U, 0xb9f12eebfe0cf7fdU, 0xaa080aec2bffeafaU, 0x390711f61c1ff8faU,
  0x40160927d72db90cU, 0xcf30a37254102f2U, 0xeaec2e2beb08f1f8U, 0xc3e170e2604e0bcU,
  0xef078111edebd713U, 0xd8286afdc9f4d7ecU, 0xbd0a12efecf715fcU, 0x46fd27172c52ce00U,
  0x25affb1af5fccde2U, 0x180c15244a0d14e8U, 0x51cf6f5eaf8e2e6U, 0xd67481c222ff50dU,
  0x27f6f5230bf0dfe2U, 0xe2294a12d9eada02U, 0xd6161eec03d4eff7U, 0x320d16e3ef34ed0dU,
  0x12301435dd14d402U, 0x1327ee021b212314U, 0xf103f7e2e12406dcU, 0x210f0508271d1b02U,
  0x6f5cf160afce906U, 0xc7c938eed8ebf0f6U, 0xe4e2ebecf3f3d0d6U, 0x25dd1c03fef3bf0fU,
  0x240c031cebdad2f9U, 0xd2de01c71cfd09fdU, 0xf4d526d309ec28f8U, 0xf93b1d21d2ffce1dU,
  0x1d8c1e2dd12c2ddU, 0xb81f4dcbb80106f8U, 0xc2e7ffe0dd9d07e4U, 0x219817201811cff5U,
  0x16f0da1612d5d0f3U, 0xe50107db16ec1be5U, 0xa07c498e9060ef8U, 0xd33f1718de0200ffU,
  0x8d3eefbf806cddcU, 0xd91949f2ce04edf7U, 0xfff813efd8e4ecddU, 0xfdb1fe9fe1acb04U,
  0x2605141808e7d2e3U, 0xfe0ed8f502ef0bf1U, 0x9eb1ec5f00a01dcU, 0xa1f1126fc03171fU,
  0x1dcc14e3eb04df15U, 0xb8ec29f2f0ea0600U, 0xef7f939ddf6ffe6U, 0x3061c260c0bf024U,
  0xe3042fedf1f40f01U, 0x9eae724defc14e5U, 0xe7c7f5dcccfd1dcaU, 0xfb07f3150cfd060aU,
  0xfeea2ef712f8131eU, 0xf8dfed1924f82ffcU, 0x36fa2309c5cef7f8U, 0xe2dcf1fafd08ed16U,
  0x29de16dbbd10e2e1U, 0xf7ea02d725f739feU, 0x992f17d3e1fe1ddbU, 0xd62afe07ca21032fU,
  0xd3cd20e6fd511409U, 0xded6f1c40cfe4004U, 0xec02f90402f308e9U, 0xf0180501170a0307U,
  0x23fac4f1110bdb16U, 0xfeebe2e037e9f226U, 0x15141dda14071013U, 0xf8fa0aded60310efU,
  0xfff7f505ebdd0a19U, 0xe52a0c250a19e912U, 0x609e512100ae513U, 0x21a0523f91b0c1dU,
  0xde0c00081dbefc52U, 0xf800ef2b05d902ffU, 0xf0d40d0817e91bf5U, 0xebecea0756dbe5dfU,
  0xf0bffda01e500feU, 0xfb0adf1f1fd51dffU, 0x45f2221d03ab03f5U, 0xdbe6f60d0d06d722U,
  0xfc073ee7c4080ff0U, 0x3eff1ccf70626d7U, 0x810205e8b1f323c4U, 0xdd43f112dd06052bU,
  0xe3d216c80f58f4f8U, 0x25aee0bf0ad65603U, 0x18ea0ff7eedd1b02U, 0xe0f4f5e8f3060af9U,
  0x2912d7cddd14fbf1U, 0x4e7e1dc1bf61b0eU, 0xdb1729eeef0f18eaU, 0x5f218f8e81bff12U,
  0xf4db05fd01301206U, 0xfe040aed011f19fdU, 0x50dfbee0621040bU, 0xb12e5faf804250aU,
  0xefece2111ecd0342U, 0xe2ec0cff25f4f910U, 0x16ff15073107e718U, 0xf0d6eff83efae5e1U,
  0x1d12d9f101e8f8d3U, 0xfa2f09320df901faU, 0xd04fce82aeb05eaU, 0xa0609080cfef415U,
  0xd0172d20fac90b20U, 0xf2d9f1dfeef1faedU, 0xdde2ede2f2f312faU, 0xed10f51d04ec09e7U,
  0xf1010ec0fb1ae5f4U, 0x13e7defcf9e42c1dU, 0x19ddfd0ff7ea16f6U, 0xede4f8d6f6ede2ecU,
  0xfa110be3db0723f1U, 0x1cfef7f1f20120f6U, 0xd30e0a09effb07d9U, 0xfe13160df314ff1fU,
  0x3de14f70737110bU, 0x16dbf9e509f91df9U, 0x42710da0b12fdf0U, 0x290cefc5b1e839d4U,
  0x3203dcef0a50b412U, 0x151f06f2df0805f7U, 0xfb3036ffe92fe0d6U, 0xdc26f9c0f8ecfaefU,
  0x19f10fe5110b11edU, 0x14e60108ed00f8dcU, 0x100e30d7e228fde8U, 0x23e0fedf94cc31e3U,
  0x2113e501f75bbdbdU, 0x103007ebe1f9f5efU, 0x1b2926eee741e2ecU, 0xf2110dd1fdf7f5f5U,
  0xaf21fdf110907d9U, 0xded00feee08f9f2U, 0x15faf8020a02031bU, 0x802e6e1d2eb0af7U,
  0xe81915140c22e7d5U, 0x1526feeff5f1ebebU, 0x2c0dfdfcea0cf202U, 0x2fb0ce103e70c06U,
  0xd172ff01701f9f1U, 0x11dafaf0f4fd02f7U, 0xd7fe5cefe21e027U, 0x180fc2e3fedc5fefU,
  0x47c4ba0b5400ec3dU, 0x9211ef81dfbedbdU, 0xd5f346fd2509ddfbU, 0xfffef2d8f4fee8baU,
  0xfa0e0c10f0ef0e32U, 0x1346f20bc70ae4e3U, 0x125d20bacc25d504U, 0x43f9daf1cdd954e3U,
  0x4ab0d0e94306b003U, 0x253b10f1dbeeebd0U, 0xee051cdcea2605edU, 0xf0f2e5d8f7fdc7b9U,
  0xe90a0821feea152aU, 0xf125f10ecc1fe901U, 0xe3102daf42eee22U, 0x1503f7fce1e511ebU,
  0x1dd817fa2315bb1bU, 0xa180c09de00e3d5U, 0x100efae7f010ef10U, 0xf1f6ceec1df1fceaU,
  0xe907f20cf5e00e25U, 0xf119dd0fe907d7fcU, 0xf636f4f0132401deU, 0x2911ebfe25110c01U,
  0x1ec6cae6f8cff8caU, 0xf7f4faed0b2a08e6U, 0xd2e6cdcf0aea1215U, 0xdcf1ece0f60fd8dbU,
  0xb09241008f40208U, 0xd10e10dc7f4020eU, 0x16183ee5e514fed2U, 0x4910e404eeee1d0dU,
  0x20bfdfe6e4d4d8c9U, 0x26f32617ea2909f6U, 0xd1f0ebd2012526f6U, 0xe62ff9e80129cabbU,
  0xdffd2005f5fd0c22U, 0xf7f0ce0cc4d5f812U, 0xf4120900e805db02U, 0x31e0216eb06ef01U,
  0xeee6fa0413facce9U, 0x24072804f8fffbdbU, 0xe1ef03fe00fa02f0U, 0xe70cf100fb14f4f8U,
  0xea180bee2ae90523U, 0xf0e7ede403f3f50fU, 0x293fe6005ee3ebfaU, 0x1a2114c8e8f2fc1fU,
  0xe13a02eb19de1d34U, 0x1cf4d70a6101107U, 0xd8ccb7464644f6d3U, 0x8d1ed5362924f715U,
  0xf8ed148f160282d3U, 0xf3cfbdf845c12802U, 0x1e24f5e14cfde603U, 0x16240fcb04ef1440U,
  0xc4b19e8e8ef1c06U, 0x12b11a66e2fa10ebU, 0xcdd5dd584403ecd5U, 0xe127fe3922310c27U,
  0xc2f72bb40e39aeccU, 0x2ae8bc1423b9122bU, 0x7fdf519f318131fU, 0xfa07eee62f130601U,
  0x21110c1d1eec14f1U, 0x5e7f4051500fdf1U, 0xedf72417eaecf1f0U, 0x2a0443f7e5fe1912U,
  0x25e423f70f1414deU, 0x1bfcf9f7100d0b09U, 0x134500e476cb0413U, 0x420ddd35111711U,
  0xed0ed21e2eb31c45U, 0xf52c6027e71bf721U, 0xde0e1227f29e61fU, 0xa809f1ea3609e505U,
  0x312212cd23e6c6c3U, 0x601e3db25ecfff4U, 0xff2aefd362cd0217U, 0x1e3315f8260b1829U,
  0xe335e4fa0cbf1439U, 0xf03232e13fccf0bU, 0x21dbed295e17f608U, 0xd5f202121cfb13f5U,
  0xef0801e40e1bc0d5U, 0x4811e02108d62826U, 0x2e902f0fa0a0907U, 0x501090413fdec0eU,
  0x21135e51aec1305U, 0xfc13fbfa2d00f6f3U, 0x12dc0a11e7e8f712U, 0x100919170bf40c1fU,
  0xfc09f507081907f2U, 0x1e0cf4feef040f0aU, 0x17fb0d01e817132cU, 0xeb1f1b0d1903e703U,
  0x611d22c03fa2612U, 0xef09310ddaf1fe25U, 0xcedfa0b4139f8e1U, 0x200711ca0e0cfd22U,
  0x35112c08112448c5U, 0xe50f23dd242b1a00U, 0x4f218dd04fb0501U, 0x21210e080f15f422U,
  0xe9f50a0ee1d614f1U, 0xedb022df8d8f00eU, 0x2ee3f2174d2bfafbU, 0xa16002a25130aU,
  0x170107ec2e17f9dfU, 0xef102f2070b091dU, 0x1e7e9050aedf101U, 0xf311e90905f30efaU,
  0xf2f8160917d30b23U, 0x5ebed122b0a01eeU, 0x203feed0ee2dff7U, 0x14082303e20f0ff7U,
  0x19190bde0700dbfdU, 0x1305eceff8020a1eU, 0xcbfdf8cffbfa1621U, 0x1df4120e2424f620U,
  0x9c626dee605f004U, 0xb001ec1214caeee7U, 0xea34fde405fc1827U, 0x19e8f4deea182df7U,
  0xf1f003e73afff6e5U, 0x14240d34f4ecee20U, 0xc63319c5f6f21313U, 0x160a3027fd39cc0bU,
  0x29031f02cff71700U, 0x810315ff00d116ddU, 0x40de2ed06370037U, 0x10ecfe6f1182403U,
  0xf4bff502510bede3U, 0x1254fb0ffdcdef25U, 0xf21f28e90dea18eeU, 0xf3f00938163cf0fbU,
  0x1bf826fb06f71018U, 0x9c09101016fa17cbU, 0xeffaf0ff1f380124U, 0xa1ae8ddfa09e4dbU,
  0x2b7da1d2f1103ecU, 0x3928e8f01401ee0aU, 0xd3180af6f30240f7U, 0xfb052312002c1e0aU,
  0x2ec834c2bef5fef5U, 0xcce2e51f0e03f2c2U, 0xd123f01205fb0d3eU, 0x10e1e2edf90e25f7U,
  0xf2f212f5300ecc09U, 0x2134e8181ecde90bU, 0xc65817bdd7072e11U, 0xb0c303ae64c060bU,
  0x3ce931d3db061c0cU, 0xa418384203c805b4U, 0xfbfae6fa0b2ef46fU, 0x8e6c1ff0c2520e8U,
  0xdbd402354c0af60bU, 0x235edb0b1fe5eb0aU, 0xd53f35d9e4fd19e9U, 0x1b0b3429fb3e1dfcU,
  0x25f33b1af0fe081aU, 0xad1d0710ede3f9c1U, 0xf3f608da12421537U, 0x1bf6e8ebf819e9e4U,
  0x398de2648191a0eU, 0x3a44e1f20407ec11U, 0xdf2310e902fe2305U, 0xe804f71d0ded03f4U,
  0x13d739dbd7f9faf5U, 0xeb18014b1ffe08c8U, 0xe61ef721f1f2102fU, 0x5cc01fffae900e2U,
  0xe6181929090ce2ebU, 0x12200701f4131be5U, 0xd51f11a7cc0f27fdU, 0x1209051fed02fb01U,
  0x22eb3bf1eaff0714U, 0xcb17013e08c7f9cbU, 0xf02103dafa000d50U, 0xf9e3dd08120010ebU,
  0xd8f4ea3b471d0507U, 0x2834fce70509ff00U, 0xdc2d0cc7effa18e2U, 0x1a18020af62016feU,
  0x1bfb13faf0190704U, 0xbc2ae600efe6e4e2U, 0xa1605e10f26f61cU, 0x1af0e7f1ee0efee5U,
  0x5d9df303122020dU, 0x122112db0014f7ffU, 0x2dd060619280a15U, 0x5390c2823aa1becU,
  0xd50521cef7d11ff4U, 0x15ee70f9fc12b5U, 0x803f0350bdcfc19U, 0xf5e9e71e0716f322U,
  0xf2e61da5fe14b418U, 0x1ffcae162402f9fbU, 0x11cd1ce20f03effcU, 0xf62c0e3e38a7ffffU,
  0xf512fcbdebe22a08U, 0xe601f957091e0db5U, 0x1518dbf80ee7021cU, 0xeffbee2c1b33fd28U,
  0x5ef20c6d8f4c808U, 0x4ce9ae072ce7f9eeU, 0x6cc05f31e0ddf15U, 0xa2216eb27f90a08U,
  0xfcf8da07efeb2e07U, 0xea0501010bfd02e5U, 0x34010a0204f8e620U, 0x1b0e0f09e01bff0cU,
  0xfe1d08eadd1a2af5U, 0x3b0df3040505f719U, 0xc1af1130ae6fa1aU, 0xfc07123df8bf0eecU,
  0xeed614e112bbf23dU, 0xfce8f359f0f0edd3U, 0xc6eeec1844d9cc27U, 0xb3d6d0301c0dca02U,
  0x9bef6adf316cc0dU, 0xf628afeb0b1010f6U, 0xf3dd08fef7e40117U, 0xe72a0c2f059bf9e7U,
  0xdfe51bbaf3b2f631U, 0xfaf5e345eae2ecc1U, 0xc5d1d70236df001fU, 0xb7e1de453e0dbedeU,
  0x12d0f981f007c82eU, 0x151295f40ef6f708U, 0x10ccf10514fe032fU, 0xdd23fd0df6eef9ffU,
  0x8ecfcf5f5cf1110U, 0x151012fbfc1904U, 0x230de80128e1062eU, 0x6f7281c21ee0205U,
  0x1befeed1e80f0f03U, 0x251be0fbfc2aeaffU, 0x31dde1b10e7eb17U, 0xfb0ec6fef3f81be1U,
  0xfae7e0fe31c4e7fbU, 0x19e6182eebfff8e6U, 0xc2c6ef455810b924U, 0xb7e9df1f03fd02e2U,
  0xe9e0dbcb15fedfeaU, 0xfe36dce707defcf2U, 0xf9e0ea08e2161fU, 0x181be3feead6faebU,
  0xe5eada20168dd113U, 0x10e30f4ce1fdf9edU, 0xa5b9ca624febc434U, 0xb801e0203cebd4c1U,
  0xf8b2d5d8f5fbe31dU, 0x1829b7da1bfc0ef9U, 0x140b01e0ffe20a28U, 0xe52b1ae2faedebe1U,
  0xf0f8dedaf696f5e8U, 0xf8e50d24ccfefd05U, 0xe0e3c63e30fdce2aU, 0xf4ee0f011df8e0ddU,
  0x8e8cde3ef05ee25U, 0x121dd1031ae6faf1U, 0x16011512031919fdU, 0x1503dcde0d0b0dfdU,
  0xf6ea1ae0f45c1de8U, 0x340bdb04032c0515U, 0xe7fce560de2bf7cdU, 0xdc0e3f16e1100b0cU,
  0x230926fe02071ad2U, 0x1709ebe90dfcea06U, 0xe932defde610b607U, 0xc804d312180201f7U,
  0xd4d3c6060c3e0bebU, 0xeb2317eff111d3e7U, 0xe5f9e57f1cfdfea4U, 0xd8fafce20512cbfaU,
  0x12024fe3e9c2fdf7U, 0xc04ef9ffedc8bcf1U, 0xf101e51d02001005U, 0xdaf2f6271bffedf0U,
  0xd7fdc1e80cfd19d3U, 0xfefdf9eff301fcecU, 0x4f9bb0101fffae9U, 0xdc130c06cff1d110U,
  0xfc0f140efbd5d7e4U, 0xfa24fe02fadddbe5U, 0xf21d0820f5130ee4U, 0xfa00eefdedd7f5f7U,
  0xd8d117f7f44005feU, 0x38fff6f7e520c5f9U, 0xdcf4d63ae522f3deU, 0xdce12207fb24fffeU,
  0x20e049e209e918f7U, 0xfe24e8f40403d50aU, 0xae1aa11df70f94ecU, 0xca2ee23dfdc9caf3U,
  0xb2e3ba14f304f3ffU, 0xdcfd2ce2c8f193d3U, 0xd7f0b54921f2f0b3U, 0xc2b0a9c1fee7aed5U,
  0xf0fc57c90a920ce8U, 0xcb4ede19c2af87f8U, 0xd9edf2f70a16f1f7U, 0x161d2401fb19e300U,
  0xcc30d21ee9e110e1U, 0xbfdeef1db13e9ffU, 0xdd1b60df21704d7U, 0xdcfa19f9d9f4fa11U,
  0xf3022af703a4f0c9U, 0x2a11e8f002cf9d13U, 0xdf20fa34020afacdU, 0xe511fd0fe0e8eef3U,
  0xceea0414dcfed714U, 0x2eeb10e3db11ce0eU, 0xedecfa3009f70c01U, 0xd1dafae1f91fe7f9U,
  0xf9e30fe3ffd60df7U, 0xf115dd23fef8ca04U, 0xb81cce1313ffbdddU, 0xe0380f4ff1e2c50fU,
  0xb9f9e617e7d3ee11U, 0x5ef18e5d0dcb9e3U, 0xfae0d21e14c8e7e6U, 0xd7b4abdffabadaeeU,
  0xd00350e10aaefff7U, 0xd42ff111cab2aa12U, 0xeaf6ed06060cfddaU, 0x2b113003fc1bf61aU,
  0xcb210d07e9ce21ebU, 0x2afcf20ae70ef1faU, 0xfad7eaebce1cfe04U, 0xd8e514f9e60f1c0eU,
  0xfc1622081cd8fbf2U, 0x29e9fbe006d6d208U, 0x17f60304da25aef2U, 0xf925cefa48e7d944U,
  0x6f18fefd62403cdU, 0xee0df1200aedf4f1U, 0x15e615320e2306b1U, 0xe3f604effe1325deU,
  0xf5f1021502f303ffU, 0xe0f0382f07080418U, 0x2ae410e8ecf6d2f8U, 0xff0d16e13307d826U,
  0x3fecf0fd71521d1U, 0xd61af714d7ca21ebU, 0xf9eb1101faf303d8U, 0xd8f4dce7cbd51307U,
  0xeaf32823c80bf4e5U, 0xb3f31f01fdef36efU, 0x60720e308e113e3U, 0x6fc27d2f6f0fbf9U,
